{
  "version": "1.0",
  "truncation": null,
  "padding": null,
  "added_tokens": [
    {
      "id": 0,
      "content": "[UNK]",
      "single_word": false,
      "lstrip": false,
      "rstrip": false,
      "normalized": false,
      "special": true
    },
    {
      "id": 1,
      "content": "[CLS]",
      "single_word": false,
      "lstrip": false,
      "rstrip": false,
      "normalized": false,
      "special": true
    },
    {
      "id": 2,
      "content": "[SEP]",
      "single_word": false,
      "lstrip": false,
      "rstrip": false,
      "normalized": false,
      "special": true
    },
    {
      "id": 3,
      "content": "[PAD]",
      "single_word": false,
      "lstrip": false,
      "rstrip": false,
      "normalized": false,
      "special": true
    },
    {
      "id": 4,
      "content": "[MASK]",
      "single_word": false,
      "lstrip": false,
      "rstrip": false,
      "normalized": false,
      "special": true
    }
  ],
  "normalizer": null,
  "pre_tokenizer": {
    "type": "Whitespace"
  },
  "post_processor": null,
  "decoder": null,
  "model": {
    "type": "BPE",
    "dropout": null,
    "unk_token": null,
    "continuing_subword_prefix": null,
    "end_of_word_suffix": null,
    "fuse_unk": false,
    "byte_fallback": false,
    "ignore_merges": false,
    "vocab": {
      "[UNK]": 0,
      "[CLS]": 1,
      "[SEP]": 2,
      "[PAD]": 3,
      "[MASK]": 4,
      "\u0000": 5,
      "\u0001": 6,
      "\u0002": 7,
      "\u0003": 8,
      "\u0004": 9,
      "\u0005": 10,
      "\u0006": 11,
      "\u0007": 12,
      "\b": 13,
      "\u0010": 14,
      "\u0012": 15,
      "\u0013": 16,
      "\u0014": 17,
      "\u0017": 18,
      "\u0018": 19,
      "\u0019": 20,
      "\u001a": 21,
      "\u001b": 22,
      "\u001f": 23,
      "!": 24,
      "\"": 25,
      "#": 26,
      "$": 27,
      "%": 28,
      "&": 29,
      "'": 30,
      "(": 31,
      ")": 32,
      "*": 33,
      "+": 34,
      ",": 35,
      "-": 36,
      ".": 37,
      "/": 38,
      "0": 39,
      "1": 40,
      "2": 41,
      "3": 42,
      "4": 43,
      "5": 44,
      "6": 45,
      "7": 46,
      "8": 47,
      "9": 48,
      ":": 49,
      ";": 50,
      "<": 51,
      "=": 52,
      ">": 53,
      "?": 54,
      "@": 55,
      "A": 56,
      "B": 57,
      "C": 58,
      "D": 59,
      "E": 60,
      "F": 61,
      "G": 62,
      "H": 63,
      "I": 64,
      "J": 65,
      "K": 66,
      "L": 67,
      "M": 68,
      "N": 69,
      "O": 70,
      "P": 71,
      "Q": 72,
      "R": 73,
      "S": 74,
      "T": 75,
      "U": 76,
      "V": 77,
      "W": 78,
      "X": 79,
      "Y": 80,
      "Z": 81,
      "[": 82,
      "\\": 83,
      "]": 84,
      "^": 85,
      "_": 86,
      "`": 87,
      "a": 88,
      "b": 89,
      "c": 90,
      "d": 91,
      "e": 92,
      "f": 93,
      "g": 94,
      "h": 95,
      "i": 96,
      "j": 97,
      "k": 98,
      "l": 99,
      "m": 100,
      "n": 101,
      "o": 102,
      "p": 103,
      "q": 104,
      "r": 105,
      "s": 106,
      "t": 107,
      "u": 108,
      "v": 109,
      "w": 110,
      "x": 111,
      "y": 112,
      "z": 113,
      "|": 114,
      "}": 115,
      "~": 116,
      "": 117,
      "": 118,
      "": 119,
      "": 120,
      "": 121,
      "": 122,
      "": 123,
      "": 124,
      "": 125,
      "": 126,
      "": 127,
      "": 128,
      "": 129,
      "": 130,
      "": 131,
      "": 132,
      "": 133,
      "": 134,
      "": 135,
      "": 136,
      "": 137,
      "": 138,
      "": 139,
      "": 140,
      "": 141,
      "": 142,
      "": 143,
      "": 144,
      "": 145,
      "": 146,
      "": 147,
      "": 148,
      "¡": 149,
      "¢": 150,
      "£": 151,
      "¤": 152,
      "¥": 153,
      "¦": 154,
      "§": 155,
      "¨": 156,
      "©": 157,
      "ª": 158,
      "«": 159,
      "¬": 160,
      "­": 161,
      "®": 162,
      "¯": 163,
      "°": 164,
      "±": 165,
      "²": 166,
      "³": 167,
      "´": 168,
      "µ": 169,
      "¶": 170,
      "·": 171,
      "¸": 172,
      "¹": 173,
      "º": 174,
      "»": 175,
      "¼": 176,
      "½": 177,
      "¾": 178,
      "¿": 179,
      "À": 180,
      "Á": 181,
      "Â": 182,
      "Ã": 183,
      "Ä": 184,
      "Å": 185,
      "Æ": 186,
      "Ç": 187,
      "È": 188,
      "É": 189,
      "Ê": 190,
      "Ë": 191,
      "Ì": 192,
      "Í": 193,
      "Î": 194,
      "Ï": 195,
      "Ð": 196,
      "Ñ": 197,
      "Ò": 198,
      "Ó": 199,
      "Ô": 200,
      "Õ": 201,
      "Ö": 202,
      "×": 203,
      "Ø": 204,
      "Ù": 205,
      "Ú": 206,
      "Û": 207,
      "Ü": 208,
      "Þ": 209,
      "ß": 210,
      "à": 211,
      "á": 212,
      "â": 213,
      "ã": 214,
      "ä": 215,
      "å": 216,
      "æ": 217,
      "ç": 218,
      "è": 219,
      "é": 220,
      "ê": 221,
      "ë": 222,
      "ì": 223,
      "í": 224,
      "î": 225,
      "ï": 226,
      "ð": 227,
      "ñ": 228,
      "ò": 229,
      "ó": 230,
      "ô": 231,
      "õ": 232,
      "ö": 233,
      "÷": 234,
      "ø": 235,
      "ù": 236,
      "ú": 237,
      "û": 238,
      "ü": 239,
      "ý": 240,
      "þ": 241,
      "ÿ": 242,
      "Ā": 243,
      "ā": 244,
      "Ă": 245,
      "ă": 246,
      "ą": 247,
      "Ć": 248,
      "ć": 249,
      "Ĉ": 250,
      "ĉ": 251,
      "ċ": 252,
      "Č": 253,
      "č": 254,
      "ď": 255,
      "Đ": 256,
      "đ": 257,
      "ē": 258,
      "ĕ": 259,
      "Ė": 260,
      "ė": 261,
      "Ę": 262,
      "ę": 263,
      "Ě": 264,
      "ě": 265,
      "Ĝ": 266,
      "ĝ": 267,
      "Ğ": 268,
      "ğ": 269,
      "Ġ": 270,
      "ġ": 271,
      "ģ": 272,
      "Ħ": 273,
      "ħ": 274,
      "ĩ": 275,
      "Ī": 276,
      "ī": 277,
      "ĭ": 278,
      "į": 279,
      "İ": 280,
      "ı": 281,
      "ĺ": 282,
      "ļ": 283,
      "Ľ": 284,
      "ľ": 285,
      "Ł": 286,
      "ł": 287,
      "ń": 288,
      "ņ": 289,
      "Ň": 290,
      "ň": 291,
      "ŋ": 292,
      "Ō": 293,
      "ō": 294,
      "ŏ": 295,
      "ő": 296,
      "Œ": 297,
      "œ": 298,
      "ŕ": 299,
      "ř": 300,
      "Ś": 301,
      "ś": 302,
      "ŝ": 303,
      "Ş": 304,
      "ş": 305,
      "Š": 306,
      "š": 307,
      "ţ": 308,
      "Ť": 309,
      "ť": 310,
      "ũ": 311,
      "Ū": 312,
      "ū": 313,
      "ŭ": 314,
      "ů": 315,
      "ű": 316,
      "ų": 317,
      "Ÿ": 318,
      "ź": 319,
      "Ż": 320,
      "ż": 321,
      "Ž": 322,
      "ž": 323,
      "Ƅ": 324,
      "ƅ": 325,
      "Ɖ": 326,
      "Ƒ": 327,
      "ƒ": 328,
      "Ɨ": 329,
      "ơ": 330,
      "Ƭ": 331,
      "ư": 332,
      "ƶ": 333,
      "ǎ": 334,
      "ǐ": 335,
      "ǒ": 336,
      "ǔ": 337,
      "ǝ": 338,
      "ǥ": 339,
      "ǫ": 340,
      "Ș": 341,
      "ș": 342,
      "ț": 343,
      "ȝ": 344,
      "Ȼ": 345,
      "Ƀ": 346,
      "Ɇ": 347,
      "ɐ": 348,
      "ɑ": 349,
      "ɒ": 350,
      "ɔ": 351,
      "ə": 352,
      "ɛ": 353,
      "ɜ": 354,
      "ɡ": 355,
      "ɢ": 356,
      "ɦ": 357,
      "ɨ": 358,
      "ɪ": 359,
      "ɫ": 360,
      "ɭ": 361,
      "ɯ": 362,
      "ɴ": 363,
      "ɵ": 364,
      "ɾ": 365,
      "ʀ": 366,
      "ʁ": 367,
      "ʃ": 368,
      "ʊ": 369,
      "ʌ": 370,
      "ʏ": 371,
      "ʒ": 372,
      "ʕ": 373,
      "ʜ": 374,
      "ʰ": 375,
      "ʲ": 376,
      "ʺ": 377,
      "ʻ": 378,
      "ʼ": 379,
      "ʾ": 380,
      "ʿ": 381,
      "˅": 382,
      "ˆ": 383,
      "ˇ": 384,
      "ˈ": 385,
      "ˉ": 386,
      "ˌ": 387,
      "ː": 388,
      "˙": 389,
      "˚": 390,
      "˜": 391,
      "ˢ": 392,
      "̀": 393,
      "́": 394,
      "̂": 395,
      "̃": 396,
      "̄": 397,
      "̅": 398,
      "̈": 399,
      "̊": 400,
      "̌": 401,
      "̞": 402,
      "̠": 403,
      "̣": 404,
      "̥": 405,
      "̦": 406,
      "̧": 407,
      "̨": 408,
      "̫": 409,
      "̬": 410,
      "̲": 411,
      "̶": 412,
      "͛": 413,
      "͜": 414,
      "͞": 415,
      "͡": 416,
      ";": 417,
      "΄": 418,
      "Έ": 419,
      "Ί": 420,
      "Α": 421,
      "Β": 422,
      "Γ": 423,
      "Δ": 424,
      "Ε": 425,
      "Η": 426,
      "Θ": 427,
      "Ι": 428,
      "Κ": 429,
      "Λ": 430,
      "Μ": 431,
      "Ν": 432,
      "Ο": 433,
      "Π": 434,
      "Ρ": 435,
      "Σ": 436,
      "Τ": 437,
      "Φ": 438,
      "Χ": 439,
      "Ψ": 440,
      "Ω": 441,
      "ά": 442,
      "έ": 443,
      "ή": 444,
      "ί": 445,
      "α": 446,
      "β": 447,
      "γ": 448,
      "δ": 449,
      "ε": 450,
      "ζ": 451,
      "η": 452,
      "θ": 453,
      "ι": 454,
      "κ": 455,
      "λ": 456,
      "μ": 457,
      "ν": 458,
      "ξ": 459,
      "ο": 460,
      "π": 461,
      "ρ": 462,
      "ς": 463,
      "σ": 464,
      "τ": 465,
      "υ": 466,
      "φ": 467,
      "χ": 468,
      "ψ": 469,
      "ω": 470,
      "ϊ": 471,
      "ό": 472,
      "ύ": 473,
      "ώ": 474,
      "ϕ": 475,
      "ϟ": 476,
      "ϲ": 477,
      "Ͻ": 478,
      "Ͼ": 479,
      "Ё": 480,
      "Ђ": 481,
      "Ѓ": 482,
      "Є": 483,
      "Ѕ": 484,
      "І": 485,
      "Ї": 486,
      "Ј": 487,
      "Љ": 488,
      "Њ": 489,
      "Ћ": 490,
      "Ќ": 491,
      "Ў": 492,
      "Џ": 493,
      "А": 494,
      "Б": 495,
      "В": 496,
      "Г": 497,
      "Д": 498,
      "Е": 499,
      "Ж": 500,
      "З": 501,
      "И": 502,
      "Й": 503,
      "К": 504,
      "Л": 505,
      "М": 506,
      "Н": 507,
      "О": 508,
      "П": 509,
      "Р": 510,
      "С": 511,
      "Т": 512,
      "У": 513,
      "Ф": 514,
      "Х": 515,
      "Ц": 516,
      "Ч": 517,
      "Ш": 518,
      "Щ": 519,
      "Ъ": 520,
      "Ы": 521,
      "Ь": 522,
      "Э": 523,
      "Ю": 524,
      "Я": 525,
      "а": 526,
      "б": 527,
      "в": 528,
      "г": 529,
      "д": 530,
      "е": 531,
      "ж": 532,
      "з": 533,
      "и": 534,
      "й": 535,
      "к": 536,
      "л": 537,
      "м": 538,
      "н": 539,
      "о": 540,
      "п": 541,
      "р": 542,
      "с": 543,
      "т": 544,
      "у": 545,
      "ф": 546,
      "х": 547,
      "ц": 548,
      "ч": 549,
      "ш": 550,
      "щ": 551,
      "ъ": 552,
      "ы": 553,
      "ь": 554,
      "э": 555,
      "ю": 556,
      "я": 557,
      "ё": 558,
      "ђ": 559,
      "ѓ": 560,
      "є": 561,
      "ѕ": 562,
      "і": 563,
      "ї": 564,
      "ј": 565,
      "љ": 566,
      "њ": 567,
      "ћ": 568,
      "ќ": 569,
      "ў": 570,
      "џ": 571,
      "ѡ": 572,
      "ѣ": 573,
      "ѵ": 574,
      "Ґ": 575,
      "ґ": 576,
      "ҫ": 577,
      "Ү": 578,
      "ү": 579,
      "Һ": 580,
      "һ": 581,
      "Ӏ": 582,
      "ӏ": 583,
      "ә": 584,
      "ө": 585,
      "ԛ": 586,
      "ԝ": 587,
      "Յ": 588,
      "Ն": 589,
      "ՠ": 590,
      "ա": 591,
      "օ": 592,
      "֣": 593,
      "֤": 594,
      "ְ": 595,
      "ֵ": 596,
      "ַ": 597,
      "ָ": 598,
      "ֹ": 599,
      "ּ": 600,
      "ׁ": 601,
      "א": 602,
      "ב": 603,
      "ג": 604,
      "ד": 605,
      "ה": 606,
      "ו": 607,
      "ז": 608,
      "ח": 609,
      "ט": 610,
      "י": 611,
      "ך": 612,
      "כ": 613,
      "ל": 614,
      "ם": 615,
      "מ": 616,
      "ן": 617,
      "נ": 618,
      "ס": 619,
      "ע": 620,
      "ף": 621,
      "פ": 622,
      "ץ": 623,
      "צ": 624,
      "ק": 625,
      "ר": 626,
      "ש": 627,
      "ת": 628,
      "ױ": 629,
      "ײ": 630,
      "׳": 631,
      "״": 632,
      "؂": 633,
      "،": 634,
      "؛": 635,
      "؟": 636,
      "ء": 637,
      "آ": 638,
      "أ": 639,
      "ؤ": 640,
      "إ": 641,
      "ئ": 642,
      "ا": 643,
      "ب": 644,
      "ة": 645,
      "ت": 646,
      "ث": 647,
      "ج": 648,
      "ح": 649,
      "خ": 650,
      "د": 651,
      "ذ": 652,
      "ر": 653,
      "ز": 654,
      "س": 655,
      "ش": 656,
      "ص": 657,
      "ض": 658,
      "ط": 659,
      "ظ": 660,
      "ع": 661,
      "غ": 662,
      "ـ": 663,
      "ف": 664,
      "ق": 665,
      "ك": 666,
      "ل": 667,
      "م": 668,
      "ن": 669,
      "ه": 670,
      "و": 671,
      "ى": 672,
      "ي": 673,
      "ً": 674,
      "َ": 675,
      "ُ": 676,
      "ِ": 677,
      "ّ": 678,
      "ْ": 679,
      "١": 680,
      "٤": 681,
      "٦": 682,
      "٪": 683,
      "٫": 684,
      "ٹ": 685,
      "پ": 686,
      "چ": 687,
      "ڈ": 688,
      "ژ": 689,
      "ک": 690,
      "گ": 691,
      "ں": 692,
      "ھ": 693,
      "ۀ": 694,
      "ہ": 695,
      "ی": 696,
      "ے": 697,
      "ۜ": 698,
      "ۣ": 699,
      "۰": 700,
      "۱": 701,
      "۲": 702,
      "۳": 703,
      "۴": 704,
      "۵": 705,
      "۶": 706,
      "۷": 707,
      "۸": 708,
      "۹": 709,
      "ܐ": 710,
      "ܘ": 711,
      "ܚ": 712,
      "ܛ": 713,
      "ܝ": 714,
      "ܡ": 715,
      "ܣ": 716,
      "ܦ": 717,
      "ܩ": 718,
      "ܪ": 719,
      "ܫ": 720,
      "ܬ": 721,
      "ߋ": 722,
      "ँ": 723,
      "ं": 724,
      "ः": 725,
      "अ": 726,
      "आ": 727,
      "इ": 728,
      "ई": 729,
      "उ": 730,
      "ऊ": 731,
      "ऋ": 732,
      "ए": 733,
      "ऐ": 734,
      "ऑ": 735,
      "ओ": 736,
      "औ": 737,
      "क": 738,
      "ख": 739,
      "ग": 740,
      "घ": 741,
      "च": 742,
      "छ": 743,
      "ज": 744,
      "ञ": 745,
      "ट": 746,
      "ठ": 747,
      "ड": 748,
      "ण": 749,
      "त": 750,
      "थ": 751,
      "द": 752,
      "ध": 753,
      "न": 754,
      "प": 755,
      "फ": 756,
      "ब": 757,
      "भ": 758,
      "म": 759,
      "य": 760,
      "र": 761,
      "ल": 762,
      "व": 763,
      "श": 764,
      "ष": 765,
      "स": 766,
      "ह": 767,
      "़": 768,
      "ा": 769,
      "ि": 770,
      "ी": 771,
      "ु": 772,
      "ू": 773,
      "ृ": 774,
      "ॅ": 775,
      "े": 776,
      "ै": 777,
      "ॉ": 778,
      "ो": 779,
      "ौ": 780,
      "्": 781,
      "ड़": 782,
      "।": 783,
      "०": 784,
      "१": 785,
      "२": 786,
      "३": 787,
      "४": 788,
      "५": 789,
      "६": 790,
      "७": 791,
      "८": 792,
      "९": 793,
      "ং": 794,
      "ঃ": 795,
      "অ": 796,
      "আ": 797,
      "ই": 798,
      "উ": 799,
      "এ": 800,
      "ও": 801,
      "ক": 802,
      "খ": 803,
      "গ": 804,
      "ঘ": 805,
      "চ": 806,
      "ছ": 807,
      "জ": 808,
      "ট": 809,
      "ঠ": 810,
      "ড": 811,
      "ণ": 812,
      "ত": 813,
      "থ": 814,
      "দ": 815,
      "ন": 816,
      "প": 817,
      "ফ": 818,
      "ব": 819,
      "ভ": 820,
      "ম": 821,
      "য": 822,
      "র": 823,
      "ল": 824,
      "শ": 825,
      "স": 826,
      "হ": 827,
      "়": 828,
      "া": 829,
      "ি": 830,
      "ী": 831,
      "ু": 832,
      "ূ": 833,
      "ৃ": 834,
      "ে": 835,
      "ৈ": 836,
      "ো": 837,
      "্": 838,
      "ড়": 839,
      "য়": 840,
      "০": 841,
      "৬": 842,
      "৭": 843,
      "ৰ": 844,
      "৳": 845,
      "ਆ": 846,
      "ਕ": 847,
      "ਖ": 848,
      "ਗ": 849,
      "ਘ": 850,
      "ਜ": 851,
      "ਞ": 852,
      "ਡ": 853,
      "ਣ": 854,
      "ਥ": 855,
      "ਨ": 856,
      "ਪ": 857,
      "ਬ": 858,
      "ਮ": 859,
      "ਰ": 860,
      "ਲ": 861,
      "ਵ": 862,
      "ਸ": 863,
      "ਹ": 864,
      "ਾ": 865,
      "ਿ": 866,
      "ੀ": 867,
      "ੁ": 868,
      "ੂ": 869,
      "ੇ": 870,
      "ੈ": 871,
      "ੋ": 872,
      "੧": 873,
      "੭": 874,
      "ੰ": 875,
      "அ": 876,
      "இ": 877,
      "எ": 878,
      "க": 879,
      "ங": 880,
      "ச": 881,
      "ஜ": 882,
      "ட": 883,
      "ண": 884,
      "த": 885,
      "ந": 886,
      "ன": 887,
      "ப": 888,
      "ம": 889,
      "ய": 890,
      "ர": 891,
      "ற": 892,
      "ல": 893,
      "ள": 894,
      "வ": 895,
      "ஸ": 896,
      "ா": 897,
      "ி": 898,
      "ீ": 899,
      "ு": 900,
      "ூ": 901,
      "ே": 902,
      "ை": 903,
      "ொ": 904,
      "ோ": 905,
      "்": 906,
      "అ": 907,
      "ఇ": 908,
      "క": 909,
      "ట": 910,
      "డ": 911,
      "మ": 912,
      "ర": 913,
      "ల": 914,
      "వ": 915,
      "శ": 916,
      "ా": 917,
      "ి": 918,
      "ు": 919,
      "ొ": 920,
      "్": 921,
      "ಂ": 922,
      "ಅ": 923,
      "ಈ": 924,
      "ಏ": 925,
      "ಓ": 926,
      "ಕ": 927,
      "ಗ": 928,
      "ಚ": 929,
      "ಜ": 930,
      "ಟ": 931,
      "ಡ": 932,
      "ತ": 933,
      "ಥ": 934,
      "ದ": 935,
      "ನ": 936,
      "ಪ": 937,
      "ಭ": 938,
      "ಮ": 939,
      "ಯ": 940,
      "ರ": 941,
      "ಳ": 942,
      "ವ": 943,
      "ಶ": 944,
      "ಸ": 945,
      "ಹ": 946,
      "ಾ": 947,
      "ಿ": 948,
      "ೀ": 949,
      "ು": 950,
      "ೆ": 951,
      "ೇ": 952,
      "ೈ": 953,
      "ೋ": 954,
      "್": 955,
      "ക": 956,
      "ട": 957,
      "ഡ": 958,
      "ണ": 959,
      "ന": 960,
      "ബ": 961,
      "മ": 962,
      "ര": 963,
      "ള": 964,
      "വ": 965,
      "ഷ": 966,
      "ഹ": 967,
      "ാ": 968,
      "ി": 969,
      "ു": 970,
      "േ": 971,
      "ോ": 972,
      "്": 973,
      "ก": 974,
      "ข": 975,
      "ค": 976,
      "ง": 977,
      "จ": 978,
      "ช": 979,
      "ซ": 980,
      "ญ": 981,
      "ฎ": 982,
      "ฐ": 983,
      "ฒ": 984,
      "ณ": 985,
      "ด": 986,
      "ต": 987,
      "ถ": 988,
      "ท": 989,
      "ธ": 990,
      "น": 991,
      "บ": 992,
      "ป": 993,
      "ผ": 994,
      "พ": 995,
      "ฟ": 996,
      "ภ": 997,
      "ม": 998,
      "ย": 999,
      "ร": 1000,
      "ฤ": 1001,
      "ล": 1002,
      "ว": 1003,
      "ศ": 1004,
      "ษ": 1005,
      "ส": 1006,
      "ห": 1007,
      "อ": 1008,
      "ะ": 1009,
      "ั": 1010,
      "า": 1011,
      "ำ": 1012,
      "ิ": 1013,
      "ี": 1014,
      "ึ": 1015,
      "ื": 1016,
      "ุ": 1017,
      "ู": 1018,
      "เ": 1019,
      "แ": 1020,
      "โ": 1021,
      "ใ": 1022,
      "ไ": 1023,
      "ๆ": 1024,
      "็": 1025,
      "่": 1026,
      "้": 1027,
      "๊": 1028,
      "๋": 1029,
      "์": 1030,
      "๑": 1031,
      "๒": 1032,
      "๕": 1033,
      "๖": 1034,
      "ຂ": 1035,
      "ງ": 1036,
      "ຍ": 1037,
      "ນ": 1038,
      "ບ": 1039,
      "ຜ": 1040,
      "ສ": 1041,
      "ອ": 1042,
      "ະ": 1043,
      "າ": 1044,
      "ີ": 1045,
      "້": 1046,
      "ໜ": 1047,
      "Ⴉ": 1048,
      "Ⴌ": 1049,
      "Ⴎ": 1050,
      "Ⴝ": 1051,
      "ა": 1052,
      "ბ": 1053,
      "გ": 1054,
      "დ": 1055,
      "ე": 1056,
      "ვ": 1057,
      "ზ": 1058,
      "თ": 1059,
      "ი": 1060,
      "კ": 1061,
      "ლ": 1062,
      "მ": 1063,
      "ნ": 1064,
      "ო": 1065,
      "პ": 1066,
      "ჟ": 1067,
      "რ": 1068,
      "ს": 1069,
      "ტ": 1070,
      "უ": 1071,
      "ფ": 1072,
      "ქ": 1073,
      "ღ": 1074,
      "ყ": 1075,
      "შ": 1076,
      "ჩ": 1077,
      "ც": 1078,
      "ძ": 1079,
      "წ": 1080,
      "ჭ": 1081,
      "ხ": 1082,
      "ჯ": 1083,
      "ჷ": 1084,
      "ჸ": 1085,
      "Ꮇ": 1086,
      "ᐅ": 1087,
      "ᐈ": 1088,
      "ᗪ": 1089,
      "ᥙ": 1090,
      "᧐": 1091,
      "ᴀ": 1092,
      "ᴏ": 1093,
      "ᴘ": 1094,
      "ᴛ": 1095,
      "ᴠ": 1096,
      "ᴡ": 1097,
      "ᴬ": 1098,
      "ᴺ": 1099,
      "ᴼ": 1100,
      "ᵁ": 1101,
      "ᵊ": 1102,
      "ḍ": 1103,
      "ḏ": 1104,
      "Ḥ": 1105,
      "ḥ": 1106,
      "ṅ": 1107,
      "ṇ": 1108,
      "Ṛ": 1109,
      "ṛ": 1110,
      "ṟ": 1111,
      "ṣ": 1112,
      "ṭ": 1113,
      "Ẓ": 1114,
      "ạ": 1115,
      "ả": 1116,
      "ấ": 1117,
      "ầ": 1118,
      "ẩ": 1119,
      "ẫ": 1120,
      "ậ": 1121,
      "ắ": 1122,
      "ằ": 1123,
      "ặ": 1124,
      "ẹ": 1125,
      "ẻ": 1126,
      "ế": 1127,
      "ề": 1128,
      "ể": 1129,
      "ễ": 1130,
      "ệ": 1131,
      "ỉ": 1132,
      "ị": 1133,
      "ọ": 1134,
      "ỏ": 1135,
      "ố": 1136,
      "ồ": 1137,
      "ổ": 1138,
      "ỗ": 1139,
      "Ộ": 1140,
      "ộ": 1141,
      "ớ": 1142,
      "ờ": 1143,
      "ở": 1144,
      "ỡ": 1145,
      "ợ": 1146,
      "ụ": 1147,
      "ủ": 1148,
      "ứ": 1149,
      "ừ": 1150,
      "ử": 1151,
      "ữ": 1152,
      "ự": 1153,
      "ἀ": 1154,
      "Ἀ": 1155,
      "ἐ": 1156,
      "ἔ": 1157,
      "Ἔ": 1158,
      "ἠ": 1159,
      "ἡ": 1160,
      "ἦ": 1161,
      "ἰ": 1162,
      "ἴ": 1163,
      "ἶ": 1164,
      "Ἰ": 1165,
      "ὀ": 1166,
      "ὅ": 1167,
      "ὐ": 1168,
      "ὑ": 1169,
      "ὡ": 1170,
      "ὥ": 1171,
      "ὰ": 1172,
      "ά": 1173,
      "ὲ": 1174,
      "έ": 1175,
      "ὴ": 1176,
      "ή": 1177,
      "ὶ": 1178,
      "ί": 1179,
      "ὸ": 1180,
      "ό": 1181,
      "ύ": 1182,
      "᾽": 1183,
      "ῆ": 1184,
      "ῖ": 1185,
      "ῦ": 1186,
      "ῶ": 1187,
      "ῷ": 1188,
      "​": 1189,
      "‌": 1190,
      "‍": 1191,
      "‎": 1192,
      "‏": 1193,
      "‐": 1194,
      "‑": 1195,
      "‒": 1196,
      "–": 1197,
      "—": 1198,
      "―": 1199,
      "‘": 1200,
      "’": 1201,
      "‚": 1202,
      "“": 1203,
      "”": 1204,
      "„": 1205,
      "‟": 1206,
      "†": 1207,
      "‡": 1208,
      "•": 1209,
      "․": 1210,
      "…": 1211,
      "‪": 1212,
      "‬": 1213,
      "‰": 1214,
      "′": 1215,
      "″": 1216,
      "‹": 1217,
      "›": 1218,
      "※": 1219,
      "‿": 1220,
      "⁂": 1221,
      "⁃": 1222,
      "⁄": 1223,
      "⁎": 1224,
      "⁝": 1225,
      "⁠": 1226,
      "⁣": 1227,
      "⁰": 1228,
      "⁴": 1229,
      "⁵": 1230,
      "₁": 1231,
      "₂": 1232,
      "₄": 1233,
      "₈": 1234,
      "₠": 1235,
      "₤": 1236,
      "₦": 1237,
      "₩": 1238,
      "₪": 1239,
      "€": 1240,
      "₱": 1241,
      "₵": 1242,
      "₹": 1243,
      "₽": 1244,
      "⃣": 1245,
      "ℂ": 1246,
      "℃": 1247,
      "℉": 1248,
      "ℓ": 1249,
      "№": 1250,
      "℗": 1251,
      "ℜ": 1252,
      "℠": 1253,
      "™": 1254,
      "Ω": 1255,
      "ℯ": 1256,
      "ℹ": 1257,
      "⅓": 1258,
      "⅔": 1259,
      "⅘": 1260,
      "⅛": 1261,
      "⅝": 1262,
      "⅞": 1263,
      "Ⅰ": 1264,
      "Ⅱ": 1265,
      "Ⅲ": 1266,
      "Ⅴ": 1267,
      "Ⅶ": 1268,
      "ⅼ": 1269,
      "ⅾ": 1270,
      "←": 1271,
      "↑": 1272,
      "→": 1273,
      "↓": 1274,
      "↔": 1275,
      "↘": 1276,
      "↪": 1277,
      "↯": 1278,
      "↳": 1279,
      "↵": 1280,
      "↷": 1281,
      "⇋": 1282,
      "⇑": 1283,
      "⇒": 1284,
      "⇓": 1285,
      "⇨": 1286,
      "⇬": 1287,
      "∀": 1288,
      "∂": 1289,
      "∃": 1290,
      "∆": 1291,
      "∏": 1292,
      "∑": 1293,
      "−": 1294,
      "∓": 1295,
      "∕": 1296,
      "∗": 1297,
      "∙": 1298,
      "√": 1299,
      "∞": 1300,
      "∧": 1301,
      "∩": 1302,
      "∴": 1303,
      "∶": 1304,
      "∼": 1305,
      "≈": 1306,
      "≠": 1307,
      "≡": 1308,
      "≤": 1309,
      "≥": 1310,
      "≦": 1311,
      "≧": 1312,
      "⊙": 1313,
      "⊞": 1314,
      "⊠": 1315,
      "⊥": 1316,
      "⋅": 1317,
      "⌈": 1318,
      "⌋": 1319,
      "⏱": 1320,
      "␔": 1321,
      "①": 1322,
      "②": 1323,
      "③": 1324,
      "④": 1325,
      "⑤": 1326,
      "⑥": 1327,
      "⑦": 1328,
      "⑧": 1329,
      "Ⓡ": 1330,
      "Ⓣ": 1331,
      "ⓒ": 1332,
      "ⓔ": 1333,
      "ⓛ": 1334,
      "ⓞ": 1335,
      "ⓥ": 1336,
      "─": 1337,
      "│": 1338,
      "┬": 1339,
      "╁": 1340,
      "╋": 1341,
      "║": 1342,
      "█": 1343,
      "▒": 1344,
      "■": 1345,
      "▪": 1346,
      "▲": 1347,
      "▶": 1348,
      "▷": 1349,
      "▸": 1350,
      "►": 1351,
      "▻": 1352,
      "▼": 1353,
      "▽": 1354,
      "◆": 1355,
      "◇": 1356,
      "◉": 1357,
      "◊": 1358,
      "○": 1359,
      "◌": 1360,
      "◎": 1361,
      "●": 1362,
      "◡": 1363,
      "◦": 1364,
      "◼": 1365,
      "◾": 1366,
      "☀": 1367,
      "☂": 1368,
      "☄": 1369,
      "★": 1370,
      "☆": 1371,
      "☎": 1372,
      "☑": 1373,
      "☕": 1374,
      "☘": 1375,
      "☺": 1376,
      "♀": 1377,
      "♂": 1378,
      "♠": 1379,
      "♡": 1380,
      "♢": 1381,
      "♣": 1382,
      "♥": 1383,
      "♦": 1384,
      "♧": 1385,
      "♪": 1386,
      "♫": 1387,
      "♭": 1388,
      "♮": 1389,
      "⚙": 1390,
      "⚡": 1391,
      "⛱": 1392,
      "⛳": 1393,
      "⛽": 1394,
      "✂": 1395,
      "✅": 1396,
      "✈": 1397,
      "✉": 1398,
      "✒": 1399,
      "✓": 1400,
      "✔": 1401,
      "✖": 1402,
      "✞": 1403,
      "✦": 1404,
      "✨": 1405,
      "✪": 1406,
      "✯": 1407,
      "✰": 1408,
      "✳": 1409,
      "✶": 1410,
      "✻": 1411,
      "✽": 1412,
      "❀": 1413,
      "❁": 1414,
      "❉": 1415,
      "❋": 1416,
      "❌": 1417,
      "❓": 1418,
      "❖": 1419,
      "❗": 1420,
      "❛": 1421,
      "❣": 1422,
      "❤": 1423,
      "❶": 1424,
      "➊": 1425,
      "➋": 1426,
      "➌": 1427,
      "➍": 1428,
      "➔": 1429,
      "➖": 1430,
      "➜": 1431,
      "➡": 1432,
      "➢": 1433,
      "➤": 1434,
      "➯": 1435,
      "⟨": 1436,
      "⟩": 1437,
      "⟵": 1438,
      "⩔": 1439,
      "⩾": 1440,
      "⬇": 1441,
      "⭐": 1442,
      "Ⱡ": 1443,
      "ⲟ": 1444,
      "Ⲣ": 1445,
      "、": 1446,
      "。": 1447,
      "々": 1448,
      "〈": 1449,
      "〉": 1450,
      "《": 1451,
      "》": 1452,
      "「": 1453,
      "」": 1454,
      "『": 1455,
      "』": 1456,
      "【": 1457,
      "】": 1458,
      "〖": 1459,
      "〗": 1460,
      "〜": 1461,
      "あ": 1462,
      "い": 1463,
      "う": 1464,
      "ぇ": 1465,
      "え": 1466,
      "お": 1467,
      "か": 1468,
      "が": 1469,
      "き": 1470,
      "く": 1471,
      "ぐ": 1472,
      "け": 1473,
      "げ": 1474,
      "こ": 1475,
      "ご": 1476,
      "さ": 1477,
      "し": 1478,
      "じ": 1479,
      "す": 1480,
      "ず": 1481,
      "せ": 1482,
      "ぜ": 1483,
      "そ": 1484,
      "ぞ": 1485,
      "た": 1486,
      "だ": 1487,
      "ち": 1488,
      "っ": 1489,
      "つ": 1490,
      "て": 1491,
      "で": 1492,
      "と": 1493,
      "ど": 1494,
      "な": 1495,
      "に": 1496,
      "の": 1497,
      "は": 1498,
      "ば": 1499,
      "ひ": 1500,
      "び": 1501,
      "ふ": 1502,
      "ぶ": 1503,
      "へ": 1504,
      "べ": 1505,
      "ほ": 1506,
      "ぼ": 1507,
      "ぽ": 1508,
      "ま": 1509,
      "み": 1510,
      "め": 1511,
      "も": 1512,
      "ゃ": 1513,
      "や": 1514,
      "ゅ": 1515,
      "ゆ": 1516,
      "ょ": 1517,
      "よ": 1518,
      "ら": 1519,
      "り": 1520,
      "る": 1521,
      "れ": 1522,
      "ろ": 1523,
      "わ": 1524,
      "を": 1525,
      "ん": 1526,
      "ァ": 1527,
      "ア": 1528,
      "ィ": 1529,
      "イ": 1530,
      "ウ": 1531,
      "ェ": 1532,
      "エ": 1533,
      "ォ": 1534,
      "オ": 1535,
      "カ": 1536,
      "ガ": 1537,
      "キ": 1538,
      "ク": 1539,
      "グ": 1540,
      "ケ": 1541,
      "ゲ": 1542,
      "コ": 1543,
      "ゴ": 1544,
      "サ": 1545,
      "ザ": 1546,
      "シ": 1547,
      "ジ": 1548,
      "ス": 1549,
      "ズ": 1550,
      "セ": 1551,
      "ゼ": 1552,
      "ソ": 1553,
      "タ": 1554,
      "ダ": 1555,
      "チ": 1556,
      "ッ": 1557,
      "ツ": 1558,
      "テ": 1559,
      "デ": 1560,
      "ト": 1561,
      "ド": 1562,
      "ナ": 1563,
      "ニ": 1564,
      "ネ": 1565,
      "ノ": 1566,
      "ハ": 1567,
      "バ": 1568,
      "パ": 1569,
      "ヒ": 1570,
      "ビ": 1571,
      "ピ": 1572,
      "フ": 1573,
      "ブ": 1574,
      "プ": 1575,
      "ヘ": 1576,
      "ベ": 1577,
      "ペ": 1578,
      "ホ": 1579,
      "ボ": 1580,
      "ポ": 1581,
      "マ": 1582,
      "ミ": 1583,
      "ム": 1584,
      "メ": 1585,
      "モ": 1586,
      "ャ": 1587,
      "ヤ": 1588,
      "ュ": 1589,
      "ユ": 1590,
      "ョ": 1591,
      "ヨ": 1592,
      "ラ": 1593,
      "リ": 1594,
      "ル": 1595,
      "レ": 1596,
      "ロ": 1597,
      "ヮ": 1598,
      "ワ": 1599,
      "ン": 1600,
      "・": 1601,
      "ー": 1602,
      "ヽ": 1603,
      "ㄣ": 1604,
      "ㄤ": 1605,
      "ㄥ": 1606,
      "ㄦ": 1607,
      "ㄨ": 1608,
      "ㄷ": 1609,
      "一": 1610,
      "七": 1611,
      "万": 1612,
      "丈": 1613,
      "三": 1614,
      "上": 1615,
      "下": 1616,
      "不": 1617,
      "与": 1618,
      "专": 1619,
      "且": 1620,
      "世": 1621,
      "业": 1622,
      "东": 1623,
      "丟": 1624,
      "両": 1625,
      "两": 1626,
      "並": 1627,
      "丧": 1628,
      "个": 1629,
      "中": 1630,
      "串": 1631,
      "临": 1632,
      "丸": 1633,
      "为": 1634,
      "主": 1635,
      "乃": 1636,
      "久": 1637,
      "么": 1638,
      "义": 1639,
      "之": 1640,
      "乎": 1641,
      "乏": 1642,
      "乐": 1643,
      "乗": 1644,
      "乘": 1645,
      "九": 1646,
      "也": 1647,
      "习": 1648,
      "乳": 1649,
      "乾": 1650,
      "了": 1651,
      "予": 1652,
      "争": 1653,
      "事": 1654,
      "二": 1655,
      "于": 1656,
      "云": 1657,
      "互": 1658,
      "五": 1659,
      "亚": 1660,
      "些": 1661,
      "交": 1662,
      "产": 1663,
      "享": 1664,
      "京": 1665,
      "人": 1666,
      "什": 1667,
      "仁": 1668,
      "仅": 1669,
      "今": 1670,
      "介": 1671,
      "从": 1672,
      "仕": 1673,
      "他": 1674,
      "付": 1675,
      "仙": 1676,
      "代": 1677,
      "令": 1678,
      "以": 1679,
      "们": 1680,
      "仮": 1681,
      "件": 1682,
      "任": 1683,
      "企": 1684,
      "伊": 1685,
      "伍": 1686,
      "休": 1687,
      "优": 1688,
      "会": 1689,
      "伝": 1690,
      "伟": 1691,
      "传": 1692,
      "伯": 1693,
      "伴": 1694,
      "伸": 1695,
      "伺": 1696,
      "但": 1697,
      "佈": 1698,
      "位": 1699,
      "低": 1700,
      "住": 1701,
      "佐": 1702,
      "体": 1703,
      "何": 1704,
      "余": 1705,
      "作": 1706,
      "你": 1707,
      "佩": 1708,
      "佬": 1709,
      "佳": 1710,
      "使": 1711,
      "來": 1712,
      "例": 1713,
      "供": 1714,
      "依": 1715,
      "価": 1716,
      "侧": 1717,
      "侯": 1718,
      "便": 1719,
      "係": 1720,
      "促": 1721,
      "俊": 1722,
      "保": 1723,
      "信": 1724,
      "修": 1725,
      "個": 1726,
      "倍": 1727,
      "們": 1728,
      "候": 1729,
      "借": 1730,
      "倫": 1731,
      "倭": 1732,
      "值": 1733,
      "倾": 1734,
      "假": 1735,
      "做": 1736,
      "停": 1737,
      "健": 1738,
      "側": 1739,
      "偵": 1740,
      "偶": 1741,
      "偷": 1742,
      "偿": 1743,
      "傅": 1744,
      "備": 1745,
      "傩": 1746,
      "催": 1747,
      "傳": 1748,
      "像": 1749,
      "僕": 1750,
      "價": 1751,
      "儀": 1752,
      "償": 1753,
      "優": 1754,
      "儺": 1755,
      "儿": 1756,
      "允": 1757,
      "元": 1758,
      "充": 1759,
      "先": 1760,
      "光": 1761,
      "克": 1762,
      "免": 1763,
      "兒": 1764,
      "入": 1765,
      "內": 1766,
      "全": 1767,
      "八": 1768,
      "公": 1769,
      "六": 1770,
      "共": 1771,
      "关": 1772,
      "兵": 1773,
      "其": 1774,
      "具": 1775,
      "典": 1776,
      "兼": 1777,
      "内": 1778,
      "再": 1779,
      "写": 1780,
      "军": 1781,
      "冠": 1782,
      "冲": 1783,
      "决": 1784,
      "况": 1785,
      "冷": 1786,
      "减": 1787,
      "几": 1788,
      "凡": 1789,
      "凯": 1790,
      "凸": 1791,
      "出": 1792,
      "击": 1793,
      "函": 1794,
      "刀": 1795,
      "分": 1796,
      "切": 1797,
      "刊": 1798,
      "划": 1799,
      "列": 1800,
      "则": 1801,
      "初": 1802,
      "判": 1803,
      "別": 1804,
      "利": 1805,
      "别": 1806,
      "到": 1807,
      "制": 1808,
      "刷": 1809,
      "刺": 1810,
      "刻": 1811,
      "剁": 1812,
      "剂": 1813,
      "則": 1814,
      "前": 1815,
      "剛": 1816,
      "副": 1817,
      "割": 1818,
      "創": 1819,
      "劇": 1820,
      "力": 1821,
      "办": 1822,
      "功": 1823,
      "加": 1824,
      "务": 1825,
      "动": 1826,
      "助": 1827,
      "励": 1828,
      "効": 1829,
      "势": 1830,
      "勉": 1831,
      "勋": 1832,
      "動": 1833,
      "務": 1834,
      "勝": 1835,
      "勢": 1836,
      "勤": 1837,
      "包": 1838,
      "化": 1839,
      "北": 1840,
      "区": 1841,
      "医": 1842,
      "區": 1843,
      "十": 1844,
      "千": 1845,
      "升": 1846,
      "午": 1847,
      "半": 1848,
      "华": 1849,
      "协": 1850,
      "单": 1851,
      "南": 1852,
      "博": 1853,
      "卞": 1854,
      "卡": 1855,
      "卫": 1856,
      "印": 1857,
      "即": 1858,
      "却": 1859,
      "卵": 1860,
      "卷": 1861,
      "卻": 1862,
      "厅": 1863,
      "压": 1864,
      "厚": 1865,
      "原": 1866,
      "厭": 1867,
      "厲": 1868,
      "去": 1869,
      "参": 1870,
      "參": 1871,
      "又": 1872,
      "及": 1873,
      "友": 1874,
      "双": 1875,
      "反": 1876,
      "发": 1877,
      "取": 1878,
      "受": 1879,
      "变": 1880,
      "叡": 1881,
      "叢": 1882,
      "口": 1883,
      "古": 1884,
      "句": 1885,
      "另": 1886,
      "只": 1887,
      "叫": 1888,
      "可": 1889,
      "台": 1890,
      "史": 1891,
      "叶": 1892,
      "号": 1893,
      "司": 1894,
      "吃": 1895,
      "各": 1896,
      "合": 1897,
      "吉": 1898,
      "吊": 1899,
      "同": 1900,
      "名": 1901,
      "后": 1902,
      "吐": 1903,
      "向": 1904,
      "吗": 1905,
      "君": 1906,
      "否": 1907,
      "含": 1908,
      "听": 1909,
      "吴": 1910,
      "吸": 1911,
      "告": 1912,
      "员": 1913,
      "周": 1914,
      "味": 1915,
      "呼": 1916,
      "命": 1917,
      "和": 1918,
      "咖": 1919,
      "咲": 1920,
      "品": 1921,
      "哄": 1922,
      "哈": 1923,
      "响": 1924,
      "員": 1925,
      "哥": 1926,
      "哪": 1927,
      "哺": 1928,
      "唐": 1929,
      "售": 1930,
      "唱": 1931,
      "商": 1932,
      "問": 1933,
      "啟": 1934,
      "啡": 1935,
      "善": 1936,
      "喔": 1937,
      "喧": 1938,
      "喪": 1939,
      "單": 1940,
      "嗎": 1941,
      "嗯": 1942,
      "嘉": 1943,
      "嘘": 1944,
      "嘩": 1945,
      "嘿": 1946,
      "器": 1947,
      "噴": 1948,
      "囊": 1949,
      "四": 1950,
      "回": 1951,
      "因": 1952,
      "団": 1953,
      "园": 1954,
      "囲": 1955,
      "図": 1956,
      "围": 1957,
      "固": 1958,
      "国": 1959,
      "图": 1960,
      "圆": 1961,
      "圈": 1962,
      "國": 1963,
      "園": 1964,
      "圓": 1965,
      "圖": 1966,
      "土": 1967,
      "圧": 1968,
      "在": 1969,
      "地": 1970,
      "圳": 1971,
      "场": 1972,
      "址": 1973,
      "坂": 1974,
      "均": 1975,
      "坐": 1976,
      "坑": 1977,
      "坚": 1978,
      "坛": 1979,
      "坡": 1980,
      "坤": 1981,
      "型": 1982,
      "垮": 1983,
      "埋": 1984,
      "城": 1985,
      "埕": 1986,
      "域": 1987,
      "執": 1988,
      "基": 1989,
      "堅": 1990,
      "堆": 1991,
      "堕": 1992,
      "報": 1993,
      "場": 1994,
      "塊": 1995,
      "塔": 1996,
      "塚": 1997,
      "填": 1998,
      "境": 1999,
      "增": 2000,
      "壁": 2001,
      "壇": 2002,
      "壓": 2003,
      "壩": 2004,
      "士": 2005,
      "壮": 2006,
      "声": 2007,
      "売": 2008,
      "壽": 2009,
      "处": 2010,
      "备": 2011,
      "复": 2012,
      "夏": 2013,
      "夕": 2014,
      "外": 2015,
      "多": 2016,
      "夜": 2017,
      "夠": 2018,
      "夢": 2019,
      "大": 2020,
      "夨": 2021,
      "天": 2022,
      "太": 2023,
      "失": 2024,
      "奇": 2025,
      "奈": 2026,
      "奏": 2027,
      "奔": 2028,
      "套": 2029,
      "奠": 2030,
      "女": 2031,
      "奶": 2032,
      "她": 2033,
      "好": 2034,
      "如": 2035,
      "妫": 2036,
      "姆": 2037,
      "始": 2038,
      "姓": 2039,
      "委": 2040,
      "姚": 2041,
      "姣": 2042,
      "姬": 2043,
      "娘": 2044,
      "娜": 2045,
      "娱": 2046,
      "婆": 2047,
      "婉": 2048,
      "婕": 2049,
      "婴": 2050,
      "媒": 2051,
      "媛": 2052,
      "嫩": 2053,
      "子": 2054,
      "孔": 2055,
      "孕": 2056,
      "字": 2057,
      "存": 2058,
      "孙": 2059,
      "学": 2060,
      "孩": 2061,
      "學": 2062,
      "宁": 2063,
      "它": 2064,
      "宅": 2065,
      "守": 2066,
      "安": 2067,
      "完": 2068,
      "宗": 2069,
      "定": 2070,
      "宜": 2071,
      "宝": 2072,
      "实": 2073,
      "実": 2074,
      "审": 2075,
      "客": 2076,
      "室": 2077,
      "宫": 2078,
      "宮": 2079,
      "宰": 2080,
      "害": 2081,
      "家": 2082,
      "宸": 2083,
      "容": 2084,
      "宽": 2085,
      "宾": 2086,
      "寂": 2087,
      "寄": 2088,
      "寅": 2089,
      "富": 2090,
      "寝": 2091,
      "察": 2092,
      "實": 2093,
      "寧": 2094,
      "寫": 2095,
      "寬": 2096,
      "寮": 2097,
      "寰": 2098,
      "寶": 2099,
      "寸": 2100,
      "对": 2101,
      "寺": 2102,
      "导": 2103,
      "対": 2104,
      "寿": 2105,
      "専": 2106,
      "射": 2107,
      "将": 2108,
      "將": 2109,
      "專": 2110,
      "對": 2111,
      "導": 2112,
      "小": 2113,
      "少": 2114,
      "尔": 2115,
      "尚": 2116,
      "尤": 2117,
      "就": 2118,
      "尺": 2119,
      "尼": 2120,
      "尽": 2121,
      "尾": 2122,
      "尿": 2123,
      "局": 2124,
      "层": 2125,
      "居": 2126,
      "屈": 2127,
      "届": 2128,
      "屋": 2129,
      "展": 2130,
      "属": 2131,
      "層": 2132,
      "山": 2133,
      "岛": 2134,
      "岡": 2135,
      "峒": 2136,
      "峰": 2137,
      "島": 2138,
      "崎": 2139,
      "崖": 2140,
      "嵐": 2141,
      "嶽": 2142,
      "川": 2143,
      "州": 2144,
      "工": 2145,
      "巧": 2146,
      "巨": 2147,
      "巫": 2148,
      "差": 2149,
      "己": 2150,
      "已": 2151,
      "巴": 2152,
      "巻": 2153,
      "市": 2154,
      "布": 2155,
      "帆": 2156,
      "师": 2157,
      "帝": 2158,
      "带": 2159,
      "師": 2160,
      "帳": 2161,
      "常": 2162,
      "幅": 2163,
      "幕": 2164,
      "幣": 2165,
      "幫": 2166,
      "干": 2167,
      "平": 2168,
      "年": 2169,
      "并": 2170,
      "幸": 2171,
      "幼": 2172,
      "广": 2173,
      "広": 2174,
      "庄": 2175,
      "床": 2176,
      "应": 2177,
      "底": 2178,
      "店": 2179,
      "府": 2180,
      "废": 2181,
      "度": 2182,
      "座": 2183,
      "庫": 2184,
      "康": 2185,
      "廖": 2186,
      "廚": 2187,
      "廟": 2188,
      "廠": 2189,
      "廳": 2190,
      "延": 2191,
      "廷": 2192,
      "建": 2193,
      "开": 2194,
      "弁": 2195,
      "异": 2196,
      "弃": 2197,
      "弄": 2198,
      "式": 2199,
      "引": 2200,
      "张": 2201,
      "弱": 2202,
      "張": 2203,
      "強": 2204,
      "归": 2205,
      "当": 2206,
      "录": 2207,
      "彙": 2208,
      "形": 2209,
      "彦": 2210,
      "彩": 2211,
      "彰": 2212,
      "影": 2213,
      "彼": 2214,
      "往": 2215,
      "征": 2216,
      "待": 2217,
      "很": 2218,
      "律": 2219,
      "後": 2220,
      "徐": 2221,
      "従": 2222,
      "得": 2223,
      "從": 2224,
      "御": 2225,
      "復": 2226,
      "微": 2227,
      "徳": 2228,
      "心": 2229,
      "必": 2230,
      "忍": 2231,
      "志": 2232,
      "忘": 2233,
      "忙": 2234,
      "快": 2235,
      "念": 2236,
      "怀": 2237,
      "态": 2238,
      "怎": 2239,
      "怛": 2240,
      "思": 2241,
      "怡": 2242,
      "急": 2243,
      "性": 2244,
      "总": 2245,
      "恐": 2246,
      "恒": 2247,
      "恢": 2248,
      "息": 2249,
      "恰": 2250,
      "恼": 2251,
      "悟": 2252,
      "患": 2253,
      "您": 2254,
      "悲": 2255,
      "情": 2256,
      "惧": 2257,
      "惯": 2258,
      "惰": 2259,
      "想": 2260,
      "意": 2261,
      "愚": 2262,
      "愛": 2263,
      "感": 2264,
      "慈": 2265,
      "態": 2266,
      "慢": 2267,
      "慧": 2268,
      "慮": 2269,
      "憶": 2270,
      "應": 2271,
      "懐": 2272,
      "懷": 2273,
      "成": 2274,
      "我": 2275,
      "戒": 2276,
      "或": 2277,
      "戚": 2278,
      "戦": 2279,
      "截": 2280,
      "戰": 2281,
      "戶": 2282,
      "户": 2283,
      "戸": 2284,
      "房": 2285,
      "所": 2286,
      "扁": 2287,
      "手": 2288,
      "才": 2289,
      "打": 2290,
      "托": 2291,
      "扣": 2292,
      "扩": 2293,
      "扬": 2294,
      "扶": 2295,
      "找": 2296,
      "承": 2297,
      "技": 2298,
      "把": 2299,
      "投": 2300,
      "抗": 2301,
      "抛": 2302,
      "抜": 2303,
      "択": 2304,
      "护": 2305,
      "报": 2306,
      "抱": 2307,
      "抽": 2308,
      "担": 2309,
      "拉": 2310,
      "拐": 2311,
      "拒": 2312,
      "招": 2313,
      "拡": 2314,
      "择": 2315,
      "括": 2316,
      "持": 2317,
      "指": 2318,
      "按": 2319,
      "挡": 2320,
      "振": 2321,
      "损": 2322,
      "换": 2323,
      "据": 2324,
      "授": 2325,
      "掉": 2326,
      "排": 2327,
      "採": 2328,
      "探": 2329,
      "接": 2330,
      "控": 2331,
      "推": 2332,
      "掩": 2333,
      "掲": 2334,
      "描": 2335,
      "提": 2336,
      "插": 2337,
      "握": 2338,
      "揭": 2339,
      "摄": 2340,
      "摘": 2341,
      "摩": 2342,
      "撫": 2343,
      "播": 2344,
      "撮": 2345,
      "擁": 2346,
      "擇": 2347,
      "據": 2348,
      "擬": 2349,
      "擯": 2350,
      "擴": 2351,
      "支": 2352,
      "收": 2353,
      "改": 2354,
      "放": 2355,
      "政": 2356,
      "故": 2357,
      "效": 2358,
      "敏": 2359,
      "敖": 2360,
      "敗": 2361,
      "教": 2362,
      "散": 2363,
      "敬": 2364,
      "数": 2365,
      "敲": 2366,
      "整": 2367,
      "數": 2368,
      "文": 2369,
      "斑": 2370,
      "斓": 2371,
      "料": 2372,
      "斜": 2373,
      "斤": 2374,
      "断": 2375,
      "新": 2376,
      "方": 2377,
      "於": 2378,
      "施": 2379,
      "旅": 2380,
      "族": 2381,
      "旗": 2382,
      "无": 2383,
      "日": 2384,
      "旧": 2385,
      "旨": 2386,
      "早": 2387,
      "时": 2388,
      "昌": 2389,
      "明": 2390,
      "易": 2391,
      "星": 2392,
      "映": 2393,
      "昨": 2394,
      "是": 2395,
      "显": 2396,
      "時": 2397,
      "晉": 2398,
      "晚": 2399,
      "晨": 2400,
      "普": 2401,
      "景": 2402,
      "晴": 2403,
      "晶": 2404,
      "智": 2405,
      "暫": 2406,
      "暴": 2407,
      "曜": 2408,
      "曲": 2409,
      "更": 2410,
      "書": 2411,
      "曹": 2412,
      "曼": 2413,
      "替": 2414,
      "最": 2415,
      "會": 2416,
      "月": 2417,
      "有": 2418,
      "朋": 2419,
      "服": 2420,
      "朙": 2421,
      "望": 2422,
      "朝": 2423,
      "期": 2424,
      "木": 2425,
      "未": 2426,
      "末": 2427,
      "本": 2428,
      "术": 2429,
      "朱": 2430,
      "朵": 2431,
      "机": 2432,
      "杂": 2433,
      "权": 2434,
      "杈": 2435,
      "李": 2436,
      "材": 2437,
      "村": 2438,
      "杖": 2439,
      "杞": 2440,
      "束": 2441,
      "条": 2442,
      "来": 2443,
      "杨": 2444,
      "杩": 2445,
      "杯": 2446,
      "杰": 2447,
      "東": 2448,
      "板": 2449,
      "极": 2450,
      "构": 2451,
      "析": 2452,
      "林": 2453,
      "枚": 2454,
      "果": 2455,
      "某": 2456,
      "柔": 2457,
      "查": 2458,
      "柳": 2459,
      "査": 2460,
      "柽": 2461,
      "栅": 2462,
      "标": 2463,
      "校": 2464,
      "株": 2465,
      "样": 2466,
      "根": 2467,
      "格": 2468,
      "桂": 2469,
      "桃": 2470,
      "案": 2471,
      "桐": 2472,
      "桜": 2473,
      "档": 2474,
      "梁": 2475,
      "梅": 2476,
      "梭": 2477,
      "械": 2478,
      "梵": 2479,
      "检": 2480,
      "棉": 2481,
      "棣": 2482,
      "森": 2483,
      "椋": 2484,
      "植": 2485,
      "検": 2486,
      "椤": 2487,
      "椹": 2488,
      "楂": 2489,
      "楊": 2490,
      "楚": 2491,
      "業": 2492,
      "楽": 2493,
      "構": 2494,
      "様": 2495,
      "槽": 2496,
      "樂": 2497,
      "樓": 2498,
      "標": 2499,
      "模": 2500,
      "樣": 2501,
      "樹": 2502,
      "橋": 2503,
      "橙": 2504,
      "機": 2505,
      "檔": 2506,
      "檚": 2507,
      "檜": 2508,
      "櫻": 2509,
      "欅": 2510,
      "權": 2511,
      "次": 2512,
      "欢": 2513,
      "欣": 2514,
      "款": 2515,
      "歌": 2516,
      "止": 2517,
      "正": 2518,
      "此": 2519,
      "步": 2520,
      "武": 2521,
      "歷": 2522,
      "死": 2523,
      "殊": 2524,
      "段": 2525,
      "殺": 2526,
      "毅": 2527,
      "母": 2528,
      "毎": 2529,
      "每": 2530,
      "毒": 2531,
      "比": 2532,
      "毛": 2533,
      "氏": 2534,
      "民": 2535,
      "气": 2536,
      "氣": 2537,
      "氧": 2538,
      "水": 2539,
      "永": 2540,
      "汁": 2541,
      "求": 2542,
      "汇": 2543,
      "汉": 2544,
      "汎": 2545,
      "江": 2546,
      "池": 2547,
      "汴": 2548,
      "汽": 2549,
      "沈": 2550,
      "沉": 2551,
      "沒": 2552,
      "沟": 2553,
      "没": 2554,
      "沮": 2555,
      "油": 2556,
      "治": 2557,
      "泉": 2558,
      "泌": 2559,
      "法": 2560,
      "注": 2561,
      "泳": 2562,
      "洗": 2563,
      "洛": 2564,
      "洞": 2565,
      "洲": 2566,
      "活": 2567,
      "派": 2568,
      "流": 2569,
      "浅": 2570,
      "测": 2571,
      "浏": 2572,
      "浓": 2573,
      "浜": 2574,
      "浠": 2575,
      "浣": 2576,
      "浩": 2577,
      "海": 2578,
      "浼": 2579,
      "涂": 2580,
      "消": 2581,
      "涉": 2582,
      "涓": 2583,
      "涔": 2584,
      "涙": 2585,
      "液": 2586,
      "涵": 2587,
      "涼": 2588,
      "淇": 2589,
      "淋": 2590,
      "淨": 2591,
      "淬": 2592,
      "深": 2593,
      "清": 2594,
      "済": 2595,
      "渚": 2596,
      "減": 2597,
      "渡": 2598,
      "温": 2599,
      "港": 2600,
      "游": 2601,
      "湖": 2602,
      "源": 2603,
      "溪": 2604,
      "溫": 2605,
      "滑": 2606,
      "满": 2607,
      "滨": 2608,
      "滴": 2609,
      "漏": 2610,
      "演": 2611,
      "漸": 2612,
      "漿": 2613,
      "潜": 2614,
      "潭": 2615,
      "澤": 2616,
      "澶": 2617,
      "澹": 2618,
      "激": 2619,
      "濂": 2620,
      "濃": 2621,
      "濞": 2622,
      "濮": 2623,
      "瀉": 2624,
      "瀛": 2625,
      "瀬": 2626,
      "瀹": 2627,
      "灏": 2628,
      "灞": 2629,
      "灣": 2630,
      "火": 2631,
      "灰": 2632,
      "炎": 2633,
      "点": 2634,
      "為": 2635,
      "烏": 2636,
      "烘": 2637,
      "烦": 2638,
      "热": 2639,
      "無": 2640,
      "然": 2641,
      "焼": 2642,
      "熄": 2643,
      "熊": 2644,
      "熔": 2645,
      "熟": 2646,
      "熱": 2647,
      "燃": 2648,
      "燉": 2649,
      "營": 2650,
      "爭": 2651,
      "爱": 2652,
      "爺": 2653,
      "片": 2654,
      "版": 2655,
      "牙": 2656,
      "物": 2657,
      "特": 2658,
      "犬": 2659,
      "状": 2660,
      "狀": 2661,
      "狗": 2662,
      "独": 2663,
      "猜": 2664,
      "献": 2665,
      "獸": 2666,
      "玄": 2667,
      "率": 2668,
      "玉": 2669,
      "王": 2670,
      "现": 2671,
      "珍": 2672,
      "珠": 2673,
      "現": 2674,
      "球": 2675,
      "理": 2676,
      "琛": 2677,
      "琼": 2678,
      "瑕": 2679,
      "瑛": 2680,
      "瑞": 2681,
      "瑰": 2682,
      "璧": 2683,
      "環": 2684,
      "甘": 2685,
      "甚": 2686,
      "甜": 2687,
      "生": 2688,
      "產": 2689,
      "産": 2690,
      "用": 2691,
      "甯": 2692,
      "田": 2693,
      "由": 2694,
      "甲": 2695,
      "申": 2696,
      "电": 2697,
      "男": 2698,
      "画": 2699,
      "界": 2700,
      "留": 2701,
      "畢": 2702,
      "略": 2703,
      "番": 2704,
      "畫": 2705,
      "異": 2706,
      "當": 2707,
      "疑": 2708,
      "疗": 2709,
      "疾": 2710,
      "病": 2711,
      "症": 2712,
      "痉": 2713,
      "痢": 2714,
      "発": 2715,
      "登": 2716,
      "發": 2717,
      "白": 2718,
      "百": 2719,
      "的": 2720,
      "皆": 2721,
      "皇": 2722,
      "盂": 2723,
      "盆": 2724,
      "益": 2725,
      "监": 2726,
      "盖": 2727,
      "盟": 2728,
      "盡": 2729,
      "盤": 2730,
      "目": 2731,
      "直": 2732,
      "相": 2733,
      "省": 2734,
      "看": 2735,
      "県": 2736,
      "眞": 2737,
      "真": 2738,
      "眠": 2739,
      "眼": 2740,
      "眾": 2741,
      "着": 2742,
      "睡": 2743,
      "督": 2744,
      "瞧": 2745,
      "矜": 2746,
      "知": 2747,
      "短": 2748,
      "石": 2749,
      "码": 2750,
      "研": 2751,
      "破": 2752,
      "砷": 2753,
      "础": 2754,
      "硅": 2755,
      "硕": 2756,
      "硬": 2757,
      "确": 2758,
      "硼": 2759,
      "碌": 2760,
      "碍": 2761,
      "碳": 2762,
      "確": 2763,
      "碼": 2764,
      "磨": 2765,
      "磷": 2766,
      "礎": 2767,
      "示": 2768,
      "社": 2769,
      "祖": 2770,
      "祝": 2771,
      "神": 2772,
      "祥": 2773,
      "票": 2774,
      "祸": 2775,
      "福": 2776,
      "禪": 2777,
      "禮": 2778,
      "离": 2779,
      "私": 2780,
      "种": 2781,
      "科": 2782,
      "秒": 2783,
      "秘": 2784,
      "租": 2785,
      "积": 2786,
      "称": 2787,
      "程": 2788,
      "稚": 2789,
      "種": 2790,
      "稻": 2791,
      "稿": 2792,
      "穂": 2793,
      "穏": 2794,
      "穩": 2795,
      "穴": 2796,
      "究": 2797,
      "空": 2798,
      "穿": 2799,
      "窄": 2800,
      "窶": 2801,
      "立": 2802,
      "竖": 2803,
      "站": 2804,
      "竜": 2805,
      "竞": 2806,
      "竟": 2807,
      "章": 2808,
      "童": 2809,
      "竭": 2810,
      "端": 2811,
      "符": 2812,
      "第": 2813,
      "等": 2814,
      "筋": 2815,
      "筑": 2816,
      "答": 2817,
      "签": 2818,
      "简": 2819,
      "算": 2820,
      "管": 2821,
      "節": 2822,
      "範": 2823,
      "簡": 2824,
      "籍": 2825,
      "米": 2826,
      "类": 2827,
      "粉": 2828,
      "精": 2829,
      "糕": 2830,
      "糟": 2831,
      "糧": 2832,
      "系": 2833,
      "紀": 2834,
      "約": 2835,
      "紅": 2836,
      "純": 2837,
      "級": 2838,
      "素": 2839,
      "索": 2840,
      "細": 2841,
      "紹": 2842,
      "組": 2843,
      "経": 2844,
      "結": 2845,
      "絕": 2846,
      "給": 2847,
      "統": 2848,
      "絶": 2849,
      "經": 2850,
      "続": 2851,
      "綠": 2852,
      "維": 2853,
      "網": 2854,
      "総": 2855,
      "緒": 2856,
      "線": 2857,
      "緣": 2858,
      "編": 2859,
      "緩": 2860,
      "縣": 2861,
      "績": 2862,
      "繇": 2863,
      "繞": 2864,
      "繰": 2865,
      "續": 2866,
      "纠": 2867,
      "约": 2868,
      "级": 2869,
      "纪": 2870,
      "纳": 2871,
      "纷": 2872,
      "纸": 2873,
      "线": 2874,
      "组": 2875,
      "绍": 2876,
      "经": 2877,
      "结": 2878,
      "绔": 2879,
      "绘": 2880,
      "给": 2881,
      "绛": 2882,
      "络": 2883,
      "绝": 2884,
      "统": 2885,
      "绩": 2886,
      "维": 2887,
      "绾": 2888,
      "缁": 2889,
      "缇": 2890,
      "缘": 2891,
      "缩": 2892,
      "缺": 2893,
      "网": 2894,
      "置": 2895,
      "署": 2896,
      "羊": 2897,
      "美": 2898,
      "群": 2899,
      "義": 2900,
      "習": 2901,
      "翠": 2902,
      "翰": 2903,
      "翻": 2904,
      "老": 2905,
      "考": 2906,
      "者": 2907,
      "而": 2908,
      "耗": 2909,
      "耦": 2910,
      "耳": 2911,
      "联": 2912,
      "聞": 2913,
      "聯": 2914,
      "聲": 2915,
      "聴": 2916,
      "聽": 2917,
      "肉": 2918,
      "肚": 2919,
      "肝": 2920,
      "肢": 2921,
      "肩": 2922,
      "肯": 2923,
      "育": 2924,
      "胃": 2925,
      "背": 2926,
      "胞": 2927,
      "胡": 2928,
      "胯": 2929,
      "胰": 2930,
      "胶": 2931,
      "胸": 2932,
      "能": 2933,
      "脂": 2934,
      "脐": 2935,
      "脑": 2936,
      "腊": 2937,
      "腎": 2938,
      "腐": 2939,
      "腕": 2940,
      "腦": 2941,
      "腸": 2942,
      "腹": 2943,
      "膜": 2944,
      "膽": 2945,
      "臟": 2946,
      "臣": 2947,
      "臥": 2948,
      "臨": 2949,
      "自": 2950,
      "臭": 2951,
      "至": 2952,
      "致": 2953,
      "臺": 2954,
      "舆": 2955,
      "與": 2956,
      "興": 2957,
      "舌": 2958,
      "舎": 2959,
      "舒": 2960,
      "舖": 2961,
      "舞": 2962,
      "航": 2963,
      "般": 2964,
      "舰": 2965,
      "舶": 2966,
      "船": 2967,
      "艦": 2968,
      "良": 2969,
      "色": 2970,
      "艺": 2971,
      "节": 2972,
      "芒": 2973,
      "芥": 2974,
      "花": 2975,
      "芸": 2976,
      "芽": 2977,
      "苏": 2978,
      "苓": 2979,
      "若": 2980,
      "英": 2981,
      "苹": 2982,
      "范": 2983,
      "茶": 2984,
      "草": 2985,
      "荐": 2986,
      "荒": 2987,
      "药": 2988,
      "莎": 2989,
      "莫": 2990,
      "获": 2991,
      "菌": 2992,
      "菓": 2993,
      "菸": 2994,
      "萌": 2995,
      "萍": 2996,
      "营": 2997,
      "落": 2998,
      "著": 2999,
      "董": 3000,
      "葬": 3001,
      "蒙": 3002,
      "蒼": 3003,
      "蓮": 3004,
      "蔡": 3005,
      "蔵": 3006,
      "蕴": 3007,
      "薄": 3008,
      "薛": 3009,
      "藉": 3010,
      "藍": 3011,
      "藝": 3012,
      "藤": 3013,
      "虎": 3014,
      "處": 3015,
      "虛": 3016,
      "號": 3017,
      "虹": 3018,
      "虽": 3019,
      "蚀": 3020,
      "蛋": 3021,
      "蛙": 3022,
      "蝙": 3023,
      "蝠": 3024,
      "血": 3025,
      "行": 3026,
      "衍": 3027,
      "術": 3028,
      "街": 3029,
      "衛": 3030,
      "衝": 3031,
      "衣": 3032,
      "补": 3033,
      "表": 3034,
      "衰": 3035,
      "衿": 3036,
      "袖": 3037,
      "被": 3038,
      "装": 3039,
      "裏": 3040,
      "裙": 3041,
      "裝": 3042,
      "製": 3043,
      "複": 3044,
      "褰": 3045,
      "襪": 3046,
      "西": 3047,
      "要": 3048,
      "覆": 3049,
      "見": 3050,
      "視": 3051,
      "覚": 3052,
      "覧": 3053,
      "覺": 3054,
      "觀": 3055,
      "见": 3056,
      "观": 3057,
      "规": 3058,
      "视": 3059,
      "览": 3060,
      "觉": 3061,
      "觋": 3062,
      "角": 3063,
      "解": 3064,
      "言": 3065,
      "訂": 3066,
      "計": 3067,
      "訊": 3068,
      "討": 3069,
      "記": 3070,
      "訥": 3071,
      "訪": 3072,
      "設": 3073,
      "許": 3074,
      "訳": 3075,
      "詞": 3076,
      "詢": 3077,
      "試": 3078,
      "話": 3079,
      "該": 3080,
      "詳": 3081,
      "誌": 3082,
      "認": 3083,
      "語": 3084,
      "誤": 3085,
      "誥": 3086,
      "說": 3087,
      "説": 3088,
      "課": 3089,
      "調": 3090,
      "請": 3091,
      "論": 3092,
      "諮": 3093,
      "諸": 3094,
      "諺": 3095,
      "謡": 3096,
      "證": 3097,
      "識": 3098,
      "譜": 3099,
      "警": 3100,
      "議": 3101,
      "護": 3102,
      "讀": 3103,
      "變": 3104,
      "讓": 3105,
      "计": 3106,
      "认": 3107,
      "讨": 3108,
      "让": 3109,
      "议": 3110,
      "讯": 3111,
      "许": 3112,
      "论": 3113,
      "设": 3114,
      "诀": 3115,
      "证": 3116,
      "识": 3117,
      "诉": 3118,
      "诊": 3119,
      "词": 3120,
      "译": 3121,
      "试": 3122,
      "诗": 3123,
      "话": 3124,
      "该": 3125,
      "语": 3126,
      "误": 3127,
      "诲": 3128,
      "说": 3129,
      "请": 3130,
      "诺": 3131,
      "读": 3132,
      "课": 3133,
      "谈": 3134,
      "谦": 3135,
      "谷": 3136,
      "象": 3137,
      "豪": 3138,
      "負": 3139,
      "財": 3140,
      "販": 3141,
      "買": 3142,
      "貿": 3143,
      "資": 3144,
      "賞": 3145,
      "質": 3146,
      "賴": 3147,
      "購": 3148,
      "賽": 3149,
      "贝": 3150,
      "财": 3151,
      "责": 3152,
      "败": 3153,
      "质": 3154,
      "贵": 3155,
      "贸": 3156,
      "资": 3157,
      "赏": 3158,
      "赖": 3159,
      "赞": 3160,
      "赢": 3161,
      "赤": 3162,
      "赵": 3163,
      "起": 3164,
      "超": 3165,
      "越": 3166,
      "趕": 3167,
      "足": 3168,
      "跑": 3169,
      "距": 3170,
      "跟": 3171,
      "跨": 3172,
      "路": 3173,
      "践": 3174,
      "跺": 3175,
      "踊": 3176,
      "蹇": 3177,
      "身": 3178,
      "車": 3179,
      "較": 3180,
      "載": 3181,
      "輸": 3182,
      "輿": 3183,
      "车": 3184,
      "转": 3185,
      "软": 3186,
      "轰": 3187,
      "载": 3188,
      "较": 3189,
      "辛": 3190,
      "辜": 3191,
      "辣": 3192,
      "辨": 3193,
      "辭": 3194,
      "辰": 3195,
      "边": 3196,
      "达": 3197,
      "过": 3198,
      "迎": 3199,
      "运": 3200,
      "近": 3201,
      "返": 3202,
      "还": 3203,
      "这": 3204,
      "进": 3205,
      "远": 3206,
      "违": 3207,
      "连": 3208,
      "迪": 3209,
      "述": 3210,
      "追": 3211,
      "送": 3212,
      "适": 3213,
      "逃": 3214,
      "逆": 3215,
      "选": 3216,
      "透": 3217,
      "递": 3218,
      "途": 3219,
      "這": 3220,
      "通": 3221,
      "逛": 3222,
      "速": 3223,
      "造": 3224,
      "連": 3225,
      "週": 3226,
      "進": 3227,
      "逾": 3228,
      "遇": 3229,
      "遊": 3230,
      "運": 3231,
      "遍": 3232,
      "過": 3233,
      "道": 3234,
      "違": 3235,
      "遗": 3236,
      "遞": 3237,
      "遠": 3238,
      "遣": 3239,
      "適": 3240,
      "遮": 3241,
      "選": 3242,
      "避": 3243,
      "邑": 3244,
      "邓": 3245,
      "邕": 3246,
      "那": 3247,
      "邹": 3248,
      "邻": 3249,
      "部": 3250,
      "都": 3251,
      "配": 3252,
      "酚": 3253,
      "酪": 3254,
      "酷": 3255,
      "酸": 3256,
      "醫": 3257,
      "采": 3258,
      "释": 3259,
      "釋": 3260,
      "里": 3261,
      "重": 3262,
      "野": 3263,
      "量": 3264,
      "金": 3265,
      "釗": 3266,
      "針": 3267,
      "釣": 3268,
      "釤": 3269,
      "釦": 3270,
      "鈉": 3271,
      "鈥": 3272,
      "鈾": 3273,
      "鉀": 3274,
      "鉴": 3275,
      "銀": 3276,
      "銘": 3277,
      "銪": 3278,
      "錄": 3279,
      "錠": 3280,
      "錢": 3281,
      "錯": 3282,
      "鍋": 3283,
      "鍺": 3284,
      "鍾": 3285,
      "鏊": 3286,
      "鏡": 3287,
      "鐵": 3288,
      "鑑": 3289,
      "鑫": 3290,
      "针": 3291,
      "钙": 3292,
      "钟": 3293,
      "钦": 3294,
      "钱": 3295,
      "铃": 3296,
      "铵": 3297,
      "锋": 3298,
      "锐": 3299,
      "错": 3300,
      "锛": 3301,
      "锥": 3302,
      "镁": 3303,
      "镇": 3304,
      "長": 3305,
      "长": 3306,
      "門": 3307,
      "閉": 3308,
      "開": 3309,
      "閑": 3310,
      "間": 3311,
      "関": 3312,
      "閲": 3313,
      "闇": 3314,
      "闊": 3315,
      "關": 3316,
      "门": 3317,
      "闪": 3318,
      "问": 3319,
      "闲": 3320,
      "间": 3321,
      "阅": 3322,
      "阈": 3323,
      "阝": 3324,
      "队": 3325,
      "阪": 3326,
      "阱": 3327,
      "防": 3328,
      "陀": 3329,
      "附": 3330,
      "际": 3331,
      "降": 3332,
      "限": 3333,
      "院": 3334,
      "陣": 3335,
      "除": 3336,
      "陪": 3337,
      "陰": 3338,
      "陳": 3339,
      "陷": 3340,
      "陽": 3341,
      "隅": 3342,
      "隊": 3343,
      "階": 3344,
      "随": 3345,
      "隐": 3346,
      "隔": 3347,
      "際": 3348,
      "障": 3349,
      "隨": 3350,
      "隱": 3351,
      "雅": 3352,
      "集": 3353,
      "雑": 3354,
      "雒": 3355,
      "離": 3356,
      "難": 3357,
      "雷": 3358,
      "電": 3359,
      "需": 3360,
      "震": 3361,
      "霊": 3362,
      "霖": 3363,
      "露": 3364,
      "靈": 3365,
      "青": 3366,
      "靜": 3367,
      "非": 3368,
      "面": 3369,
      "韓": 3370,
      "韦": 3371,
      "韩": 3372,
      "韬": 3373,
      "音": 3374,
      "響": 3375,
      "項": 3376,
      "順": 3377,
      "預": 3378,
      "頓": 3379,
      "頭": 3380,
      "頴": 3381,
      "顆": 3382,
      "題": 3383,
      "願": 3384,
      "類": 3385,
      "顯": 3386,
      "页": 3387,
      "项": 3388,
      "须": 3389,
      "顾": 3390,
      "颁": 3391,
      "预": 3392,
      "频": 3393,
      "颕": 3394,
      "颖": 3395,
      "题": 3396,
      "额": 3397,
      "風": 3398,
      "飛": 3399,
      "食": 3400,
      "飲": 3401,
      "飼": 3402,
      "養": 3403,
      "餐": 3404,
      "館": 3405,
      "饭": 3406,
      "饮": 3407,
      "饰": 3408,
      "饼": 3409,
      "馃": 3410,
      "馆": 3411,
      "首": 3412,
      "香": 3413,
      "馬": 3414,
      "騮": 3415,
      "驗": 3416,
      "马": 3417,
      "验": 3418,
      "骗": 3419,
      "骞": 3420,
      "骤": 3421,
      "體": 3422,
      "高": 3423,
      "髪": 3424,
      "鬆": 3425,
      "鬼": 3426,
      "魂": 3427,
      "魏": 3428,
      "魔": 3429,
      "魚": 3430,
      "鰤": 3431,
      "鱼": 3432,
      "鳥": 3433,
      "鴨": 3434,
      "鴻": 3435,
      "鶴": 3436,
      "鷄": 3437,
      "鸿": 3438,
      "麻": 3439,
      "黃": 3440,
      "黄": 3441,
      "黑": 3442,
      "黒": 3443,
      "默": 3444,
      "點": 3445,
      "齐": 3446,
      "齿": 3447,
      "龍": 3448,
      "龔": 3449,
      "龙": 3450,
      "ꈤ": 3451,
      "ꟷ": 3452,
      "ꪱ": 3453,
      "가": 3454,
      "각": 3455,
      "간": 3456,
      "갈": 3457,
      "감": 3458,
      "강": 3459,
      "갖": 3460,
      "같": 3461,
      "개": 3462,
      "객": 3463,
      "갤": 3464,
      "거": 3465,
      "건": 3466,
      "걸": 3467,
      "검": 3468,
      "겁": 3469,
      "것": 3470,
      "겉": 3471,
      "게": 3472,
      "겠": 3473,
      "겨": 3474,
      "격": 3475,
      "겪": 3476,
      "견": 3477,
      "결": 3478,
      "겹": 3479,
      "경": 3480,
      "계": 3481,
      "고": 3482,
      "곡": 3483,
      "곧": 3484,
      "골": 3485,
      "곳": 3486,
      "공": 3487,
      "과": 3488,
      "관": 3489,
      "교": 3490,
      "구": 3491,
      "국": 3492,
      "굴": 3493,
      "권": 3494,
      "궤": 3495,
      "귀": 3496,
      "규": 3497,
      "균": 3498,
      "그": 3499,
      "극": 3500,
      "근": 3501,
      "글": 3502,
      "금": 3503,
      "급": 3504,
      "긍": 3505,
      "기": 3506,
      "긴": 3507,
      "길": 3508,
      "김": 3509,
      "깊": 3510,
      "까": 3511,
      "깔": 3512,
      "깝": 3513,
      "깨": 3514,
      "꺼": 3515,
      "께": 3516,
      "꼬": 3517,
      "꼭": 3518,
      "꼴": 3519,
      "꾸": 3520,
      "꿀": 3521,
      "뀐": 3522,
      "끔": 3523,
      "끗": 3524,
      "끝": 3525,
      "끼": 3526,
      "낌": 3527,
      "나": 3528,
      "낙": 3529,
      "난": 3530,
      "날": 3531,
      "남": 3532,
      "낭": 3533,
      "낮": 3534,
      "내": 3535,
      "낸": 3536,
      "낼": 3537,
      "냈": 3538,
      "너": 3539,
      "넓": 3540,
      "넘": 3541,
      "넣": 3542,
      "네": 3543,
      "녀": 3544,
      "녁": 3545,
      "년": 3546,
      "념": 3547,
      "놀": 3548,
      "높": 3549,
      "놓": 3550,
      "누": 3551,
      "눈": 3552,
      "눌": 3553,
      "뉴": 3554,
      "느": 3555,
      "는": 3556,
      "늘": 3557,
      "능": 3558,
      "니": 3559,
      "닌": 3560,
      "닐": 3561,
      "님": 3562,
      "닝": 3563,
      "다": 3564,
      "단": 3565,
      "닫": 3566,
      "달": 3567,
      "닭": 3568,
      "닮": 3569,
      "담": 3570,
      "답": 3571,
      "당": 3572,
      "대": 3573,
      "더": 3574,
      "던": 3575,
      "데": 3576,
      "델": 3577,
      "도": 3578,
      "독": 3579,
      "돈": 3580,
      "돌": 3581,
      "동": 3582,
      "돼": 3583,
      "되": 3584,
      "된": 3585,
      "될": 3586,
      "됨": 3587,
      "됩": 3588,
      "두": 3589,
      "둘": 3590,
      "둡": 3591,
      "뒤": 3592,
      "드": 3593,
      "득": 3594,
      "든": 3595,
      "들": 3596,
      "듬": 3597,
      "듭": 3598,
      "듯": 3599,
      "등": 3600,
      "디": 3601,
      "딘": 3602,
      "딜": 3603,
      "딩": 3604,
      "따": 3605,
      "때": 3606,
      "떠": 3607,
      "떤": 3608,
      "떨": 3609,
      "또": 3610,
      "뛰": 3611,
      "라": 3612,
      "락": 3613,
      "란": 3614,
      "람": 3615,
      "랍": 3616,
      "랑": 3617,
      "래": 3618,
      "랙": 3619,
      "랜": 3620,
      "램": 3621,
      "랩": 3622,
      "랫": 3623,
      "랴": 3624,
      "략": 3625,
      "량": 3626,
      "러": 3627,
      "런": 3628,
      "럼": 3629,
      "럽": 3630,
      "렇": 3631,
      "레": 3632,
      "렐": 3633,
      "려": 3634,
      "력": 3635,
      "련": 3636,
      "렴": 3637,
      "렵": 3638,
      "령": 3639,
      "로": 3640,
      "록": 3641,
      "론": 3642,
      "롤": 3643,
      "롭": 3644,
      "료": 3645,
      "루": 3646,
      "룬": 3647,
      "류": 3648,
      "르": 3649,
      "른": 3650,
      "를": 3651,
      "름": 3652,
      "리": 3653,
      "릭": 3654,
      "린": 3655,
      "릴": 3656,
      "림": 3657,
      "립": 3658,
      "마": 3659,
      "막": 3660,
      "만": 3661,
      "많": 3662,
      "말": 3663,
      "맛": 3664,
      "망": 3665,
      "맞": 3666,
      "매": 3667,
      "맥": 3668,
      "맨": 3669,
      "머": 3670,
      "먹": 3671,
      "먼": 3672,
      "멀": 3673,
      "메": 3674,
      "멤": 3675,
      "며": 3676,
      "면": 3677,
      "멸": 3678,
      "명": 3679,
      "모": 3680,
      "목": 3681,
      "몫": 3682,
      "몰": 3683,
      "몸": 3684,
      "못": 3685,
      "몽": 3686,
      "묘": 3687,
      "무": 3688,
      "문": 3689,
      "묻": 3690,
      "물": 3691,
      "므": 3692,
      "미": 3693,
      "믹": 3694,
      "민": 3695,
      "밀": 3696,
      "및": 3697,
      "바": 3698,
      "박": 3699,
      "반": 3700,
      "받": 3701,
      "발": 3702,
      "밝": 3703,
      "밥": 3704,
      "방": 3705,
      "배": 3706,
      "백": 3707,
      "버": 3708,
      "번": 3709,
      "범": 3710,
      "법": 3711,
      "베": 3712,
      "변": 3713,
      "별": 3714,
      "병": 3715,
      "보": 3716,
      "복": 3717,
      "볶": 3718,
      "본": 3719,
      "볼": 3720,
      "봉": 3721,
      "뵙": 3722,
      "부": 3723,
      "북": 3724,
      "분": 3725,
      "불": 3726,
      "뷰": 3727,
      "브": 3728,
      "블": 3729,
      "비": 3730,
      "빈": 3731,
      "빚": 3732,
      "빛": 3733,
      "빠": 3734,
      "빼": 3735,
      "뿌": 3736,
      "뿐": 3737,
      "쁘": 3738,
      "쁜": 3739,
      "쁩": 3740,
      "사": 3741,
      "산": 3742,
      "살": 3743,
      "삶": 3744,
      "삼": 3745,
      "샀": 3746,
      "상": 3747,
      "새": 3748,
      "색": 3749,
      "샌": 3750,
      "생": 3751,
      "샷": 3752,
      "서": 3753,
      "석": 3754,
      "섞": 3755,
      "선": 3756,
      "설": 3757,
      "성": 3758,
      "세": 3759,
      "센": 3760,
      "셀": 3761,
      "셉": 3762,
      "셔": 3763,
      "션": 3764,
      "셜": 3765,
      "셰": 3766,
      "소": 3767,
      "속": 3768,
      "송": 3769,
      "쇄": 3770,
      "쇼": 3771,
      "수": 3772,
      "숙": 3773,
      "순": 3774,
      "술": 3775,
      "숨": 3776,
      "숱": 3777,
      "숲": 3778,
      "쉰": 3779,
      "쉽": 3780,
      "스": 3781,
      "슬": 3782,
      "습": 3783,
      "슷": 3784,
      "승": 3785,
      "시": 3786,
      "식": 3787,
      "신": 3788,
      "실": 3789,
      "심": 3790,
      "십": 3791,
      "싱": 3792,
      "싶": 3793,
      "싸": 3794,
      "싼": 3795,
      "쌈": 3796,
      "쌍": 3797,
      "써": 3798,
      "쓰": 3799,
      "쓸": 3800,
      "아": 3801,
      "안": 3802,
      "않": 3803,
      "알": 3804,
      "암": 3805,
      "압": 3806,
      "았": 3807,
      "앞": 3808,
      "애": 3809,
      "액": 3810,
      "앤": 3811,
      "앱": 3812,
      "야": 3813,
      "약": 3814,
      "얀": 3815,
      "양": 3816,
      "어": 3817,
      "언": 3818,
      "얼": 3819,
      "얽": 3820,
      "엄": 3821,
      "업": 3822,
      "없": 3823,
      "엇": 3824,
      "었": 3825,
      "에": 3826,
      "엔": 3827,
      "엘": 3828,
      "여": 3829,
      "역": 3830,
      "엮": 3831,
      "연": 3832,
      "열": 3833,
      "염": 3834,
      "엿": 3835,
      "였": 3836,
      "영": 3837,
      "예": 3838,
      "오": 3839,
      "옥": 3840,
      "온": 3841,
      "올": 3842,
      "옷": 3843,
      "와": 3844,
      "완": 3845,
      "왔": 3846,
      "왕": 3847,
      "왠": 3848,
      "외": 3849,
      "왼": 3850,
      "요": 3851,
      "용": 3852,
      "우": 3853,
      "욱": 3854,
      "운": 3855,
      "울": 3856,
      "움": 3857,
      "워": 3858,
      "원": 3859,
      "월": 3860,
      "웹": 3861,
      "위": 3862,
      "유": 3863,
      "육": 3864,
      "윤": 3865,
      "율": 3866,
      "융": 3867,
      "으": 3868,
      "은": 3869,
      "을": 3870,
      "음": 3871,
      "응": 3872,
      "의": 3873,
      "이": 3874,
      "인": 3875,
      "일": 3876,
      "읽": 3877,
      "임": 3878,
      "입": 3879,
      "잇": 3880,
      "있": 3881,
      "자": 3882,
      "작": 3883,
      "잔": 3884,
      "잘": 3885,
      "잠": 3886,
      "잡": 3887,
      "장": 3888,
      "재": 3889,
      "저": 3890,
      "적": 3891,
      "전": 3892,
      "절": 3893,
      "젊": 3894,
      "점": 3895,
      "접": 3896,
      "정": 3897,
      "제": 3898,
      "젤": 3899,
      "져": 3900,
      "조": 3901,
      "족": 3902,
      "존": 3903,
      "졸": 3904,
      "좀": 3905,
      "종": 3906,
      "좋": 3907,
      "좌": 3908,
      "주": 3909,
      "준": 3910,
      "줄": 3911,
      "중": 3912,
      "쥐": 3913,
      "즈": 3914,
      "즉": 3915,
      "즐": 3916,
      "증": 3917,
      "지": 3918,
      "직": 3919,
      "진": 3920,
      "질": 3921,
      "집": 3922,
      "짓": 3923,
      "징": 3924,
      "짧": 3925,
      "째": 3926,
      "쩌": 3927,
      "쪽": 3928,
      "찌": 3929,
      "차": 3930,
      "착": 3931,
      "찬": 3932,
      "찰": 3933,
      "참": 3934,
      "창": 3935,
      "찾": 3936,
      "채": 3937,
      "책": 3938,
      "처": 3939,
      "천": 3940,
      "철": 3941,
      "첨": 3942,
      "첩": 3943,
      "첫": 3944,
      "청": 3945,
      "체": 3946,
      "쳐": 3947,
      "초": 3948,
      "촉": 3949,
      "총": 3950,
      "촬": 3951,
      "최": 3952,
      "추": 3953,
      "축": 3954,
      "출": 3955,
      "충": 3956,
      "춰": 3957,
      "취": 3958,
      "측": 3959,
      "층": 3960,
      "치": 3961,
      "친": 3962,
      "칠": 3963,
      "침": 3964,
      "카": 3965,
      "커": 3966,
      "컨": 3967,
      "컬": 3968,
      "컴": 3969,
      "컸": 3970,
      "케": 3971,
      "켓": 3972,
      "켜": 3973,
      "코": 3974,
      "콘": 3975,
      "콩": 3976,
      "쿠": 3977,
      "쿨": 3978,
      "퀴": 3979,
      "크": 3980,
      "큰": 3981,
      "클": 3982,
      "큼": 3983,
      "키": 3984,
      "킨": 3985,
      "킬": 3986,
      "킹": 3987,
      "타": 3988,
      "탁": 3989,
      "탄": 3990,
      "탈": 3991,
      "탑": 3992,
      "탕": 3993,
      "태": 3994,
      "택": 3995,
      "터": 3996,
      "턴": 3997,
      "털": 3998,
      "테": 3999,
      "텍": 4000,
      "텔": 4001,
      "템": 4002,
      "토": 4003,
      "통": 4004,
      "투": 4005,
      "튀": 4006,
      "트": 4007,
      "특": 4008,
      "튼": 4009,
      "틀": 4010,
      "티": 4011,
      "틱": 4012,
      "파": 4013,
      "판": 4014,
      "팔": 4015,
      "팝": 4016,
      "패": 4017,
      "팬": 4018,
      "퍼": 4019,
      "펑": 4020,
      "페": 4021,
      "펙": 4022,
      "펴": 4023,
      "편": 4024,
      "펼": 4025,
      "평": 4026,
      "폐": 4027,
      "포": 4028,
      "폭": 4029,
      "폰": 4030,
      "폼": 4031,
      "표": 4032,
      "푸": 4033,
      "푼": 4034,
      "풀": 4035,
      "품": 4036,
      "풍": 4037,
      "퓨": 4038,
      "프": 4039,
      "플": 4040,
      "피": 4041,
      "필": 4042,
      "핑": 4043,
      "하": 4044,
      "학": 4045,
      "한": 4046,
      "할": 4047,
      "함": 4048,
      "합": 4049,
      "항": 4050,
      "해": 4051,
      "했": 4052,
      "행": 4053,
      "향": 4054,
      "험": 4055,
      "헤": 4056,
      "혀": 4057,
      "혁": 4058,
      "현": 4059,
      "혈": 4060,
      "협": 4061,
      "형": 4062,
      "혜": 4063,
      "호": 4064,
      "혹": 4065,
      "혼": 4066,
      "홈": 4067,
      "홍": 4068,
      "화": 4069,
      "확": 4070,
      "환": 4071,
      "활": 4072,
      "황": 4073,
      "회": 4074,
      "효": 4075,
      "후": 4076,
      "훈": 4077,
      "휘": 4078,
      "휴": 4079,
      "흉": 4080,
      "흐": 4081,
      "흔": 4082,
      "희": 4083,
      "히": 4084,
      "힐": 4085,
      "힘": 4086,
      "": 4087,
      "": 4088,
      "": 4089,
      "": 4090,
      "": 4091,
      "": 4092,
      "": 4093,
      "": 4094,
      "": 4095,
      "": 4096,
      "": 4097,
      "": 4098,
      "": 4099,
      "": 4100,
      "": 4101,
      "": 4102,
      "": 4103,
      "": 4104,
      "": 4105,
      "": 4106,
      "": 4107,
      "": 4108,
      "": 4109,
      "": 4110,
      "": 4111,
      "": 4112,
      "": 4113,
      "": 4114,
      "": 4115,
      "": 4116,
      "": 4117,
      "": 4118,
      "": 4119,
      "": 4120,
      "": 4121,
      "": 4122,
      "": 4123,
      "": 4124,
      "": 4125,
      "": 4126,
      "": 4127,
      "": 4128,
      "": 4129,
      "": 4130,
      "遼": 4131,
      "ﬀ": 4132,
      "ﬁ": 4133,
      "ﬂ": 4134,
      "ﬃ": 4135,
      "﴾": 4136,
      "﴿": 4137,
      "️": 4138,
      "ﺵ": 4139,
      "ﻡ": 4140,
      "﻿": 4141,
      "！": 4142,
      "＄": 4143,
      "％": 4144,
      "（": 4145,
      "）": 4146,
      "＊": 4147,
      "＋": 4148,
      "，": 4149,
      "－": 4150,
      "．": 4151,
      "／": 4152,
      "０": 4153,
      "１": 4154,
      "２": 4155,
      "３": 4156,
      "４": 4157,
      "５": 4158,
      "６": 4159,
      "７": 4160,
      "：": 4161,
      "；": 4162,
      "＞": 4163,
      "？": 4164,
      "Ｃ": 4165,
      "Ｉ": 4166,
      "Ｌ": 4167,
      "＾": 4168,
      "ｒ": 4169,
      "ｘ": 4170,
      "｜": 4171,
      "～": 4172,
      "｡": 4173,
      "ﾓ": 4174,
      "ﾔ": 4175,
      "ﾟ": 4176,
      "ﾠ": 4177,
      "ﾺ": 4178,
      "￡": 4179,
      "￼": 4180,
      "�": 4181,
      "𐌳": 4182,
      "𐌼": 4183,
      "𐌽": 4184,
      "𐌿": 4185,
      "𐍃": 4186,
      "𒄀": 4187,
      "𒈾": 4188,
      "𓆩": 4189,
      "𓆪": 4190,
      "𝓿": 4191,
      "𝔞": 4192,
      "𝔠": 4193,
      "𝔢": 4194,
      "𝔤": 4195,
      "𝔦": 4196,
      "𝔩": 4197,
      "𝔪": 4198,
      "𝔫": 4199,
      "𝔱": 4200,
      "𝔶": 4201,
      "🇦": 4202,
      "🇧": 4203,
      "🇬": 4204,
      "🇮": 4205,
      "🇱": 4206,
      "🇲": 4207,
      "🇵": 4208,
      "🇸": 4209,
      "🇹": 4210,
      "🇺": 4211,
      "🇽": 4212,
      "🌄": 4213,
      "🌈": 4214,
      "🌊": 4215,
      "🌌": 4216,
      "🌏": 4217,
      "🌥": 4218,
      "🌭": 4219,
      "🌮": 4220,
      "🌯": 4221,
      "🌳": 4222,
      "🌴": 4223,
      "🌸": 4224,
      "🌻": 4225,
      "🍀": 4226,
      "🍔": 4227,
      "🍕": 4228,
      "🍗": 4229,
      "🍟": 4230,
      "🍩": 4231,
      "🍬": 4232,
      "🍭": 4233,
      "🍴": 4234,
      "🍷": 4235,
      "🍸": 4236,
      "🍹": 4237,
      "🍺": 4238,
      "🍾": 4239,
      "🎅": 4240,
      "🎉": 4241,
      "🎖": 4242,
      "🎛": 4243,
      "🎣": 4244,
      "🎥": 4245,
      "🎯": 4246,
      "🎱": 4247,
      "🎶": 4248,
      "🎼": 4249,
      "🏁": 4250,
      "🏃": 4251,
      "🏖": 4252,
      "🏗": 4253,
      "🏡": 4254,
      "🏦": 4255,
      "🏪": 4256,
      "🏬": 4257,
      "🏴": 4258,
      "🏻": 4259,
      "🏼": 4260,
      "🐍": 4261,
      "🐓": 4262,
      "🐟": 4263,
      "🐰": 4264,
      "🐴": 4265,
      "👄": 4266,
      "👅": 4267,
      "👇": 4268,
      "👉": 4269,
      "👋": 4270,
      "👍": 4271,
      "👏": 4272,
      "👑": 4273,
      "👟": 4274,
      "👠": 4275,
      "👤": 4276,
      "👧": 4277,
      "👨": 4278,
      "👩": 4279,
      "👮": 4280,
      "👯": 4281,
      "👾": 4282,
      "💁": 4283,
      "💃": 4284,
      "💄": 4285,
      "💆": 4286,
      "💈": 4287,
      "💊": 4288,
      "💋": 4289,
      "💐": 4290,
      "💓": 4291,
      "💔": 4292,
      "💕": 4293,
      "💗": 4294,
      "💘": 4295,
      "💚": 4296,
      "💛": 4297,
      "💜": 4298,
      "💝": 4299,
      "💦": 4300,
      "💧": 4301,
      "💩": 4302,
      "💪": 4303,
      "💬": 4304,
      "💯": 4305,
      "💰": 4306,
      "💵": 4307,
      "💻": 4308,
      "💼": 4309,
      "📈": 4310,
      "📋": 4311,
      "📍": 4312,
      "📏": 4313,
      "📘": 4314,
      "📚": 4315,
      "📝": 4316,
      "📞": 4317,
      "📩": 4318,
      "📲": 4319,
      "📷": 4320,
      "📸": 4321,
      "🔎": 4322,
      "🔓": 4323,
      "🔔": 4324,
      "🔙": 4325,
      "🔛": 4326,
      "🔟": 4327,
      "🔥": 4328,
      "🔦": 4329,
      "🔨": 4330,
      "🔰": 4331,
      "🔹": 4332,
      "🕊": 4333,
      "🕍": 4334,
      "🖤": 4335,
      "🗣": 4336,
      "😀": 4337,
      "😁": 4338,
      "😂": 4339,
      "😃": 4340,
      "😅": 4341,
      "😆": 4342,
      "😇": 4343,
      "😈": 4344,
      "😉": 4345,
      "😊": 4346,
      "😋": 4347,
      "😍": 4348,
      "😎": 4349,
      "😐": 4350,
      "😔": 4351,
      "😕": 4352,
      "😘": 4353,
      "😛": 4354,
      "😝": 4355,
      "😞": 4356,
      "😢": 4357,
      "😣": 4358,
      "😦": 4359,
      "😩": 4360,
      "😭": 4361,
      "😱": 4362,
      "😲": 4363,
      "😹": 4364,
      "🙁": 4365,
      "🙂": 4366,
      "🙇": 4367,
      "🙋": 4368,
      "🙌": 4369,
      "🙏": 4370,
      "🚜": 4371,
      "🚨": 4372,
      "🚩": 4373,
      "🚸": 4374,
      "🤔": 4375,
      "🤕": 4376,
      "🤖": 4377,
      "🤗": 4378,
      "🤟": 4379,
      "🤢": 4380,
      "🤣": 4381,
      "🤤": 4382,
      "🤦": 4383,
      "🤩": 4384,
      "🤰": 4385,
      "🤳": 4386,
      "🥂": 4387,
      "🥃": 4388,
      "🥇": 4389,
      "🥑": 4390,
      "🥒": 4391,
      "🥛": 4392,
      "🥥": 4393,
      "🥰": 4394,
      "🥳": 4395,
      "🦗": 4396,
      "🧀": 4397,
      "🧚": 4398,
      "󠁢": 4399,
      "󠁤": 4400,
      "󠁦": 4401,
      "󠁲": 4402,
      "󠁿": 4403,
      "th": 4404,
      "in": 4405,
      "an": 4406,
      "er": 4407,
      "on": 4408,
      "re": 4409,
      "the": 4410,
      "at": 4411,
      "or": 4412,
      "en": 4413,
      "ou": 4414,
      "es": 4415,
      "al": 4416,
      "is": 4417,
      "to": 4418,
      "ing": 4419,
      "and": 4420,
      "ed": 4421,
      "ar": 4422,
      "it": 4423,
      "of": 4424,
      "as": 4425,
      "ic": 4426,
      "le": 4427,
      "st": 4428,
      "ion": 4429,
      "om": 4430,
      "il": 4431,
      "ent": 4432,
      "ac": 4433,
      "el": 4434,
      "ro": 4435,
      "for": 4436,
      "you": 4437,
      "se": 4438,
      "ch": 4439,
      "ve": 4440,
      "be": 4441,
      "he": 4442,
      "ad": 4443,
      "ow": 4444,
      "ly": 4445,
      "id": 4446,
      "am": 4447,
      "ay": 4448,
      "ol": 4449,
      "et": 4450,
      "im": 4451,
      "are": 4452,
      "ig": 4453,
      "ver": 4454,
      "ith": 4455,
      "ct": 4456,
      "wh": 4457,
      "ation": 4458,
      "that": 4459,
      "ot": 4460,
      "with": 4461,
      "su": 4462,
      "ab": 4463,
      "ter": 4464,
      "us": 4465,
      "un": 4466,
      "ut": 4467,
      "ir": 4468,
      "ce": 4469,
      "com": 4470,
      "ag": 4471,
      "ur": 4472,
      "pro": 4473,
      "lo": 4474,
      "con": 4475,
      "ill": 4476,
      "ers": 4477,
      "tr": 4478,
      "em": 4479,
      "all": 4480,
      "The": 4481,
      "ne": 4482,
      "ap": 4483,
      "mo": 4484,
      "if": 4485,
      "op": 4486,
      "ul": 4487,
      "pl": 4488,
      "ex": 4489,
      "ess": 4490,
      "our": 4491,
      "ke": 4492,
      "we": 4493,
      "est": 4494,
      "res": 4495,
      "ha": 4496,
      "de": 4497,
      "fr": 4498,
      "ere": 4499,
      "out": 4500,
      "your": 4501,
      "pe": 4502,
      "igh": 4503,
      "sh": 4504,
      "so": 4505,
      "ate": 4506,
      "ain": 4507,
      "qu": 4508,
      "ment": 4509,
      "art": 4510,
      "ant": 4511,
      "oun": 4512,
      "ity": 4513,
      "one": 4514,
      "per": 4515,
      "can": 4516,
      "have": 4517,
      "Th": 4518,
      "ld": 4519,
      "od": 4520,
      "was": 4521,
      "ies": 4522,
      "iv": 4523,
      "ive": 4524,
      "pr": 4525,
      "ther": 4526,
      "from": 4527,
      "this": 4528,
      "by": 4529,
      "wor": 4530,
      "act": 4531,
      "not": 4532,
      "ist": 4533,
      "will": 4534,
      "po": 4535,
      "te": 4536,
      "any": 4537,
      "um": 4538,
      "cl": 4539,
      "ort": 4540,
      "end": 4541,
      "ight": 4542,
      "do": 4543,
      "ome": 4544,
      "fe": 4545,
      "ard": 4546,
      "ial": 4547,
      "ind": 4548,
      "up": 4549,
      "ust": 4550,
      "co": 4551,
      "ip": 4552,
      "In": 4553,
      "ge": 4554,
      "gr": 4555,
      "ould": 4556,
      "ell": 4557,
      "me": 4558,
      "able": 4559,
      "gh": 4560,
      "go": 4561,
      "ok": 4562,
      "ide": 4563,
      "20": 4564,
      "ine": 4565,
      "ie": 4566,
      "but": 4567,
      "ud": 4568,
      "has": 4569,
      "ma": 4570,
      "ack": 4571,
      "ice": 4572,
      "ear": 4573,
      "age": 4574,
      "ure": 4575,
      "ally": 4576,
      "av": 4577,
      "comp": 4578,
      "ast": 4579,
      "ough": 4580,
      "tim": 4581,
      "port": 4582,
      "der": 4583,
      "ach": 4584,
      "li": 4585,
      "ions": 4586,
      "bo": 4587,
      "work": 4588,
      "form": 4589,
      "ich": 4590,
      "ire": 4591,
      "use": 4592,
      "more": 4593,
      "cre": 4594,
      "very": 4595,
      "own": 4596,
      "my": 4597,
      "ated": 4598,
      "du": 4599,
      "their": 4600,
      "ound": 4601,
      "iz": 4602,
      "ser": 4603,
      "af": 4604,
      "ans": 4605,
      "fer": 4606,
      "ite": 4607,
      "way": 4608,
      "they": 4609,
      "ts": 4610,
      "day": 4611,
      "fo": 4612,
      "ck": 4613,
      "ous": 4614,
      "get": 4615,
      "ong": 4616,
      "ev": 4617,
      "ib": 4618,
      "ass": 4619,
      "sp": 4620,
      "ail": 4621,
      "ance": 4622,
      "other": 4623,
      "some": 4624,
      "now": 4625,
      "ak": 4626,
      "its": 4627,
      "ence": 4628,
      "ign": 4629,
      "which": 4630,
      "about": 4631,
      "It": 4632,
      "00": 4633,
      "ish": 4634,
      "part": 4635,
      "time": 4636,
      "ace": 4637,
      "str": 4638,
      "We": 4639,
      "cr": 4640,
      "ia": 4641,
      "no": 4642,
      "cont": 4643,
      "pre": 4644,
      "br": 4645,
      "dis": 4646,
      "ame": 4647,
      "also": 4648,
      "thing": 4649,
      "This": 4650,
      "ber": 4651,
      "who": 4652,
      "ely": 4653,
      "ase": 4654,
      "year": 4655,
      "ep": 4656,
      "Wh": 4657,
      "cess": 4658,
      "new": 4659,
      "ction": 4660,
      "ful": 4661,
      "ical": 4662,
      "over": 4663,
      "ick": 4664,
      "ile": 4665,
      "ents": 4666,
      "bl": 4667,
      "ary": 4668,
      "ark": 4669,
      "ations": 4670,
      "An": 4671,
      "ree": 4672,
      "ren": 4673,
      "ty": 4674,
      "inter": 4675,
      "man": 4676,
      "201": 4677,
      "aw": 4678,
      "Ch": 4679,
      "need": 4680,
      "ition": 4681,
      "comm": 4682,
      "prov": 4683,
      "like": 4684,
      "them": 4685,
      "int": 4686,
      "spe": 4687,
      "his": 4688,
      "dr": 4689,
      "ple": 4690,
      "ph": 4691,
      "when": 4692,
      "pos": 4693,
      "reat": 4694,
      "ll": 4695,
      "cial": 4696,
      "ors": 4697,
      "there": 4698,
      "hel": 4699,
      "des": 4700,
      "ens": 4701,
      "pres": 4702,
      "St": 4703,
      "cor": 4704,
      "been": 4705,
      "col": 4706,
      "how": 4707,
      "off": 4708,
      "than": 4709,
      "what": 4710,
      "low": 4711,
      "just": 4712,
      "ca": 4713,
      "her": 4714,
      "ink": 4715,
      "ild": 4716,
      "serv": 4717,
      "ting": 4718,
      "would": 4719,
      "ue": 4720,
      "og": 4721,
      "most": 4722,
      "ang": 4723,
      "cho": 4724,
      "vel": 4725,
      "ef": 4726,
      "bu": 4727,
      "ater": 4728,
      "tw": 4729,
      "were": 4730,
      "fir": 4731,
      "had": 4732,
      "sa": 4733,
      "old": 4734,
      "ci": 4735,
      "cus": 4736,
      "ake": 4737,
      "add": 4738,
      "enc": 4739,
      "into": 4740,
      "mer": 4741,
      "cent": 4742,
      "ning": 4743,
      "You": 4744,
      "read": 4745,
      "cur": 4746,
      "min": 4747,
      "ade": 4748,
      "help": 4749,
      "rough": 4750,
      "make": 4751,
      "may": 4752,
      "ob": 4753,
      "vers": 4754,
      "well": 4755,
      "ople": 4756,
      "produ": 4757,
      "incl": 4758,
      "sy": 4759,
      "ory": 4760,
      "If": 4761,
      "look": 4762,
      "fin": 4763,
      "ry": 4764,
      "ating": 4765,
      "coun": 4766,
      "row": 4767,
      "only": 4768,
      "je": 4769,
      "fore": 4770,
      "back": 4771,
      "ices": 4772,
      ").": 4773,
      "people": 4774,
      "ates": 4775,
      "app": 4776,
      "19": 4777,
      "through": 4778,
      "au": 4779,
      "ose": 4780,
      "know": 4781,
      "bet": 4782,
      "reg": 4783,
      "high": 4784,
      "ian": 4785,
      "dif": 4786,
      "see": 4787,
      "pt": 4788,
      "air": 4789,
      "He": 4790,
      "lect": 4791,
      "ied": 4792,
      "ual": 4793,
      "sup": 4794,
      "every": 4795,
      "first": 4796,
      "att": 4797,
      "fect": 4798,
      "play": 4799,
      "under": 4800,
      "sur": 4801,
      "ments": 4802,
      "want": 4803,
      "ious": 4804,
      "come": 4805,
      "med": 4806,
      "these": 4807,
      "ult": 4808,
      "where": 4809,
      "vis": 4810,
      "cer": 4811,
      "top": 4812,
      "ject": 4813,
      "fl": 4814,
      "ities": 4815,
      "mon": 4816,
      "exper": 4817,
      "As": 4818,
      "many": 4819,
      "..": 4820,
      "line": 4821,
      "ific": 4822,
      "cause": 4823,
      "ener": 4824,
      "arch": 4825,
      "let": 4826,
      "tain": 4827,
      "car": 4828,
      "rel": 4829,
      "sure": 4830,
      "set": 4831,
      "iness": 4832,
      "then": 4833,
      "pers": 4834,
      "bus": 4835,
      "don": 4836,
      "ank": 4837,
      "gu": 4838,
      "tom": 4839,
      "vie": 4840,
      "ise": 4841,
      "cal": 4842,
      "requ": 4843,
      "ings": 4844,
      "ible": 4845,
      "ress": 4846,
      "ily": 4847,
      "good": 4848,
      "Un": 4849,
      "Re": 4850,
      "stud": 4851,
      "inv": 4852,
      "two": 4853,
      "stand": 4854,
      "10": 4855,
      "itt": 4856,
      "For": 4857,
      "red": 4858,
      "ons": 4859,
      "down": 4860,
      "mark": 4861,
      "os": 4862,
      "even": 4863,
      "ict": 4864,
      "great": 4865,
      "fun": 4866,
      "ever": 4867,
      "right": 4868,
      "after": 4869,
      "formation": 4870,
      "uch": 4871,
      "lif": 4872,
      "urn": 4873,
      "ility": 4874,
      "lear": 4875,
      "try": 4876,
      "years": 4877,
      "could": 4878,
      "should": 4879,
      "used": 4880,
      "sel": 4881,
      "del": 4882,
      "les": 4883,
      "less": 4884,
      "ange": 4885,
      "best": 4886,
      "stem": 4887,
      "king": 4888,
      "ased": 4889,
      "includ": 4890,
      "find": 4891,
      "ures": 4892,
      "home": 4893,
      "ho": 4894,
      "start": 4895,
      "ular": 4896,
      "ational": 4897,
      "ys": 4898,
      "ath": 4899,
      "alth": 4900,
      "design": 4901,
      "such": 4902,
      "book": 4903,
      "view": 4904,
      "she": 4905,
      "ek": 4906,
      "site": 4907,
      "land": 4908,
      "Com": 4909,
      "wr": 4910,
      "Con": 4911,
      "ds": 4912,
      "ces": 4913,
      "iss": 4914,
      "sm": 4915,
      "als": 4916,
      "olog": 4917,
      "ss": 4918,
      "much": 4919,
      "ble": 4920,
      "eng": 4921,
      "ative": 4922,
      "differ": 4923,
      "long": 4924,
      "ics": 4925,
      "mem": 4926,
      "business": 4927,
      "ement": 4928,
      "here": 4929,
      "And": 4930,
      "bel": 4931,
      "ced": 4932,
      "take": 4933,
      "information": 4934,
      "jo": 4935,
      "side": 4936,
      "io": 4937,
      "person": 4938,
      "said": 4939,
      "sub": 4940,
      "ra": 4941,
      "each": 4942,
      "main": 4943,
      "ext": 4944,
      "product": 4945,
      "ways": 4946,
      "sol": 4947,
      "eas": 4948,
      "Ne": 4949,
      "fam": 4950,
      "uring": 4951,
      "ix": 4952,
      "atch": 4953,
      "stru": 4954,
      "gan": 4955,
      "velop": 4956,
      "because": 4957,
      "ubl": 4958,
      "ident": 4959,
      "show": 4960,
      "),": 4961,
      "room": 4962,
      "made": 4963,
      "cond": 4964,
      "system": 4965,
      "Al": 4966,
      "ner": 4967,
      "ited": 4968,
      "tern": 4969,
      "develop": 4970,
      "sul": 4971,
      "call": 4972,
      "care": 4973,
      "sim": 4974,
      "gram": 4975,
      "experi": 4976,
      "ash": 4977,
      "Tr": 4978,
      "pect": 4979,
      "chn": 4980,
      "fact": 4981,
      "sk": 4982,
      "lar": 4983,
      "ven": 4984,
      "trans": 4985,
      "provid": 4986,
      "inst": 4987,
      "ality": 4988,
      "val": 4989,
      "There": 4990,
      "clo": 4991,
      "cons": 4992,
      "think": 4993,
      "being": 4994,
      "ub": 4995,
      "hand": 4996,
      "emp": 4997,
      "Ar": 4998,
      "life": 4999,
      "place": 5000,
      "So": 5001,
      "ward": 5002,
      "before": 5003,
      "does": 5004,
      "fol": 5005,
      "ages": 5006,
      "ved": 5007,
      "arr": 5008,
      "did": 5009,
      "ms": 5010,
      "light": 5011,
      "chool": 5012,
      "num": 5013,
      "ten": 5014,
      "world": 5015,
      "web": 5016,
      "che": 5017,
      "those": 5018,
      "put": 5019,
      "ving": 5020,
      "week": 5021,
      "ann": 5022,
      "ret": 5023,
      "Pro": 5024,
      "ives": 5025,
      "led": 5026,
      "ize": 5027,
      "while": 5028,
      "det": 5029,
      "amp": 5030,
      "say": 5031,
      "ship": 5032,
      "prof": 5033,
      "oup": 5034,
      "200": 5035,
      "tal": 5036,
      "cour": 5037,
      "search": 5038,
      "again": 5039,
      "ivers": 5040,
      "free": 5041,
      "How": 5042,
      "though": 5043,
      "pol": 5044,
      "But": 5045,
      "list": 5046,
      "ask": 5047,
      "ding": 5048,
      "En": 5049,
      "post": 5050,
      "char": 5051,
      "cap": 5052,
      "last": 5053,
      "market": 5054,
      "ata": 5055,
      "support": 5056,
      "different": 5057,
      "Fr": 5058,
      "using": 5059,
      "lot": 5060,
      "ional": 5061,
      "around": 5062,
      "De": 5063,
      "ouse": 5064,
      "On": 5065,
      "ese": 5066,
      "ower": 5067,
      "plic": 5068,
      "process": 5069,
      "avail": 5070,
      "pur": 5071,
      "iving": 5072,
      "ax": 5073,
      "tak": 5074,
      "ters": 5075,
      "Se": 5076,
      "fic": 5077,
      "offer": 5078,
      "ug": 5079,
      "ince": 5080,
      "commun": 5081,
      "lead": 5082,
      "ient": 5083,
      "ior": 5084,
      "self": 5085,
      "child": 5086,
      "sign": 5087,
      "too": 5088,
      "irect": 5089,
      "really": 5090,
      "team": 5091,
      "Be": 5092,
      "cover": 5093,
      "Pr": 5094,
      "gl": 5095,
      "techn": 5096,
      "going": 5097,
      "program": 5098,
      "ness": 5099,
      "him": 5100,
      "They": 5101,
      "To": 5102,
      "dec": 5103,
      "sing": 5104,
      "ton": 5105,
      "blo": 5106,
      "ins": 5107,
      "ason": 5108,
      "az": 5109,
      "import": 5110,
      "leg": 5111,
      "var": 5112,
      "ood": 5113,
      "gener": 5114,
      "New": 5115,
      "oc": 5116,
      "company": 5117,
      "available": 5118,
      "both": 5119,
      "ween": 5120,
      "run": 5121,
      "service": 5122,
      "iting": 5123,
      "publ": 5124,
      "allow": 5125,
      "present": 5126,
      "ave": 5127,
      "same": 5128,
      "still": 5129,
      "rent": 5130,
      "iver": 5131,
      "water": 5132,
      "iend": 5133,
      "ider": 5134,
      "poss": 5135,
      "feel": 5136,
      "ature": 5137,
      "What": 5138,
      "plan": 5139,
      "Bo": 5140,
      "ized": 5141,
      "build": 5142,
      "fil": 5143,
      "Ex": 5144,
      "12": 5145,
      "sal": 5146,
      "order": 5147,
      "project": 5148,
      "between": 5149,
      "cle": 5150,
      "found": 5151,
      "30": 5152,
      "sto": 5153,
      "head": 5154,
      "health": 5155,
      "ier": 5156,
      "cept": 5157,
      "load": 5158,
      "par": 5159,
      "cut": 5160,
      "ves": 5161,
      "adv": 5162,
      "pay": 5163,
      "No": 5164,
      "When": 5165,
      "love": 5166,
      "keep": 5167,
      "iel": 5168,
      "resp": 5169,
      "Cl": 5170,
      "organ": 5171,
      "point": 5172,
      "issu": 5173,
      "ired": 5174,
      "net": 5175,
      "ore": 5176,
      "bre": 5177,
      "arm": 5178,
      "15": 5179,
      "follow": 5180,
      "miss": 5181,
      "few": 5182,
      "ety": 5183,
      "exp": 5184,
      "real": 5185,
      "sit": 5186,
      "Br": 5187,
      "ants": 5188,
      "month": 5189,
      "incre": 5190,
      "friend": 5191,
      "opt": 5192,
      "small": 5193,
      "ines": 5194,
      "pat": 5195,
      "Ad": 5196,
      "experience": 5197,
      "18": 5198,
      "including": 5199,
      "oper": 5200,
      "ittle": 5201,
      "gy": 5202,
      "ability": 5203,
      "data": 5204,
      "open": 5205,
      "ology": 5206,
      "interest": 5207,
      "happ": 5208,
      "loc": 5209,
      "Co": 5210,
      "cost": 5211,
      "partic": 5212,
      "resul": 5213,
      "loy": 5214,
      "Sh": 5215,
      "level": 5216,
      "services": 5217,
      "pass": 5218,
      "class": 5219,
      "gg": 5220,
      "provide": 5221,
      "que": 5222,
      "number": 5223,
      "ually": 5224,
      "ross": 5225,
      "exam": 5226,
      "tract": 5227,
      "family": 5228,
      "always": 5229,
      "cy": 5230,
      "school": 5231,
      "Gr": 5232,
      "ital": 5233,
      "without": 5234,
      "must": 5235,
      "effect": 5236,
      "perform": 5237,
      "bers": 5238,
      "All": 5239,
      "during": 5240,
      "ural": 5241,
      "things": 5242,
      "ically": 5243,
      "grow": 5244,
      "quality": 5245,
      "proper": 5246,
      "spec": 5247,
      "important": 5248,
      "better": 5249,
      "power": 5250,
      "50": 5251,
      "ord": 5252,
      "quest": 5253,
      "With": 5254,
      "three": 5255,
      "ready": 5256,
      "fort": 5257,
      "Ro": 5258,
      "won": 5259,
      "bod": 5260,
      "Le": 5261,
      "little": 5262,
      "000": 5263,
      "press": 5264,
      "Pl": 5265,
      "based": 5266,
      "online": 5267,
      "got": 5268,
      "Our": 5269,
      "rece": 5270,
      "enter": 5271,
      "contin": 5272,
      "dep": 5273,
      "aph": 5274,
      "unt": 5275,
      "vir": 5276,
      "pare": 5277,
      "special": 5278,
      "uc": 5279,
      "ets": 5280,
      "change": 5281,
      "ude": 5282,
      "nex": 5283,
      "test": 5284,
      "manag": 5285,
      "ger": 5286,
      "At": 5287,
      "US": 5288,
      "group": 5289,
      "ients": 5290,
      "full": 5291,
      "ished": 5292,
      "direct": 5293,
      "aut": 5294,
      "ists": 5295,
      "appro": 5296,
      "itch": 5297,
      "ather": 5298,
      "sof": 5299,
      "oto": 5300,
      "kes": 5301,
      "access": 5302,
      "met": 5303,
      "give": 5304,
      "fac": 5305,
      "sum": 5306,
      "ric": 5307,
      "proble": 5308,
      "meric": 5309,
      "area": 5310,
      "ply": 5311,
      "days": 5312,
      "next": 5313,
      "big": 5314,
      "Americ": 5315,
      "Is": 5316,
      "working": 5317,
      "joy": 5318,
      "ames": 5319,
      "ately": 5320,
      "might": 5321,
      "ustr": 5322,
      "custom": 5323,
      "within": 5324,
      "house": 5325,
      "tri": 5326,
      "ution": 5327,
      "cell": 5328,
      "train": 5329,
      "oney": 5330,
      "something": 5331,
      "contro": 5332,
      "current": 5333,
      "oth": 5334,
      "ost": 5335,
      "hard": 5336,
      "rest": 5337,
      "vent": 5338,
      "mus": 5339,
      "cas": 5340,
      "lim": 5341,
      "ars": 5342,
      "another": 5343,
      "bal": 5344,
      "ards": 5345,
      "ential": 5346,
      "comple": 5347,
      "di": 5348,
      "report": 5349,
      "count": 5350,
      "ff": 5351,
      "plac": 5352,
      "since": 5353,
      "She": 5354,
      "prom": 5355,
      "ccess": 5356,
      "Chr": 5357,
      "comes": 5358,
      "share": 5359,
      "soci": 5360,
      "invest": 5361,
      "photo": 5362,
      "ah": 5363,
      "els": 5364,
      "ivid": 5365,
      "pract": 5366,
      "profess": 5367,
      "11": 5368,
      "ond": 5369,
      "law": 5370,
      "equ": 5371,
      "buy": 5372,
      "Col": 5373,
      "consider": 5374,
      "applic": 5375,
      "ump": 5376,
      "ense": 5377,
      "addition": 5378,
      "looking": 5379,
      "Ser": 5380,
      "ont": 5381,
      "Or": 5382,
      "ours": 5383,
      "prote": 5384,
      "That": 5385,
      "ben": 5386,
      "local": 5387,
      "iversity": 5388,
      "key": 5389,
      "making": 5390,
      "My": 5391,
      "chang": 5392,
      "struct": 5393,
      "aim": 5394,
      "pop": 5395,
      "products": 5396,
      "hold": 5397,
      "graph": 5398,
      "activ": 5399,
      "IN": 5400,
      "research": 5401,
      "ency": 5402,
      "bit": 5403,
      "ues": 5404,
      "ator": 5405,
      "never": 5406,
      "lease": 5407,
      "Jo": 5408,
      "body": 5409,
      "game": 5410,
      "case": 5411,
      "Res": 5412,
      "ks": 5413,
      "conne": 5414,
      "Do": 5415,
      "gin": 5416,
      "meet": 5417,
      "ted": 5418,
      "ium": 5419,
      "today": 5420,
      "ER": 5421,
      "por": 5422,
      "check": 5423,
      "pain": 5424,
      "food": 5425,
      "understand": 5426,
      "website": 5427,
      "tru": 5428,
      "ft": 5429,
      "face": 5430,
      "ove": 5431,
      "move": 5432,
      "bro": 5433,
      "public": 5434,
      "Dr": 5435,
      "Can": 5436,
      "possible": 5437,
      "gre": 5438,
      "sc": 5439,
      "students": 5440,
      "away": 5441,
      "ope": 5442,
      "These": 5443,
      "appe": 5444,
      "ieve": 5445,
      ".\"": 5446,
      "children": 5447,
      "nor": 5448,
      "tribut": 5449,
      "la": 5450,
      "mat": 5451,
      "night": 5452,
      "needs": 5453,
      "tem": 5454,
      "ences": 5455,
      "!!": 5456,
      "state": 5457,
      "course": 5458,
      "iven": 5459,
      "ived": 5460,
      "dem": 5461,
      "bed": 5462,
      "Wor": 5463,
      "job": 5464,
      "ones": 5465,
      "employ": 5466,
      "gether": 5467,
      "event": 5468,
      "easy": 5469,
      "aterial": 5470,
      "cu": 5471,
      "ending": 5472,
      "hist": 5473,
      "mill": 5474,
      "ush": 5475,
      "rem": 5476,
      "16": 5477,
      "Man": 5478,
      "success": 5479,
      "learn": 5480,
      "elect": 5481,
      "ped": 5482,
      "ems": 5483,
      "ield": 5484,
      "money": 5485,
      "second": 5486,
      "ended": 5487,
      "lection": 5488,
      "kn": 5489,
      "shop": 5490,
      "Af": 5491,
      "tra": 5492,
      "Ind": 5493,
      "pot": 5494,
      "fully": 5495,
      "aster": 5496,
      "sever": 5497,
      "14": 5498,
      "ified": 5499,
      "name": 5500,
      "came": 5501,
      "win": 5502,
      "bor": 5503,
      "25": 5504,
      "dev": 5505,
      "AN": 5506,
      "thor": 5507,
      "together": 5508,
      "ote": 5509,
      "und": 5510,
      "expect": 5511,
      "coming": 5512,
      "ping": 5513,
      "large": 5514,
      "trad": 5515,
      "page": 5516,
      "ste": 5517,
      "along": 5518,
      "ills": 5519,
      "whe": 5520,
      "ids": 5521,
      "visit": 5522,
      "Ph": 5523,
      "vide": 5524,
      "Bl": 5525,
      "ery": 5526,
      "ris": 5527,
      "sty": 5528,
      "contact": 5529,
      "enjoy": 5530,
      "minut": 5531,
      "bab": 5532,
      "create": 5533,
      "until": 5534,
      "son": 5535,
      "ique": 5536,
      "often": 5537,
      "material": 5538,
      "personal": 5539,
      "turn": 5540,
      "itions": 5541,
      "ey": 5542,
      ".,": 5543,
      "outh": 5544,
      "ling": 5545,
      "treat": 5546,
      "One": 5547,
      "wal": 5548,
      "bas": 5549,
      "having": 5550,
      "ization": 5551,
      "Te": 5552,
      "vol": 5553,
      "individ": 5554,
      "hum": 5555,
      "gover": 5556,
      "beaut": 5557,
      "kind": 5558,
      "date": 5559,
      "stat": 5560,
      "detail": 5561,
      "why": 5562,
      "atures": 5563,
      "RE": 5564,
      "perfect": 5565,
      "rop": 5566,
      "inal": 5567,
      "aper": 5568,
      "icle": 5569,
      "against": 5570,
      "17": 5571,
      "ister": 5572,
      "ify": 5573,
      "price": 5574,
      "ories": 5575,
      "pan": 5576,
      "ground": 5577,
      "compan": 5578,
      "Christ": 5579,
      "24": 5580,
      "Ap": 5581,
      "hol": 5582,
      "ism": 5583,
      "Thank": 5584,
      "hy": 5585,
      "istr": 5586,
      "times": 5587,
      "ury": 5588,
      "13": 5589,
      "include": 5590,
      "certain": 5591,
      "member": 5592,
      "sw": 5593,
      "hip": 5594,
      "tow": 5595,
      "unch": 5596,
      "step": 5597,
      "four": 5598,
      "community": 5599,
      "lab": 5600,
      "near": 5601,
      "pack": 5602,
      "ime": 5603,
      "require": 5604,
      "recor": 5605,
      "specific": 5606,
      "members": 5607,
      "individual": 5608,
      "benef": 5609,
      "sch": 5610,
      "ina": 5611,
      "ale": 5612,
      "hot": 5613,
      "recent": 5614,
      "100": 5615,
      "focus": 5616,
      "ively": 5617,
      "nment": 5618,
      "wom": 5619,
      "control": 5620,
      "ision": 5621,
      "ref": 5622,
      "God": 5623,
      "teach": 5624,
      "past": 5625,
      "aff": 5626,
      "model": 5627,
      "means": 5628,
      "viron": 5629,
      "Coun": 5630,
      "portun": 5631,
      "ON": 5632,
      "ney": 5633,
      "space": 5634,
      "aring": 5635,
      "non": 5636,
      "nam": 5637,
      "Nor": 5638,
      "works": 5639,
      "However": 5640,
      "done": 5641,
      "national": 5642,
      ",”": 5643,
      "ats": 5644,
      "far": 5645,
      "ike": 5646,
      "men": 5647,
      "ised": 5648,
      "ream": 5649,
      "become": 5650,
      "University": 5651,
      "makes": 5652,
      "After": 5653,
      "itive": 5654,
      "action": 5655,
      "ded": 5656,
      "mult": 5657,
      "tool": 5658,
      "mit": 5659,
      "educ": 5660,
      "development": 5661,
      "review": 5662,
      "AT": 5663,
      "ball": 5664,
      "...": 5665,
      "uro": 5666,
      "short": 5667,
      "quick": 5668,
      "vious": 5669,
      "vari": 5670,
      "known": 5671,
      "jor": 5672,
      "opportun": 5673,
      "ird": 5674,
      "install": 5675,
      "Mar": 5676,
      "ley": 5677,
      "tell": 5678,
      "anal": 5679,
      "ustry": 5680,
      "Ac": 5681,
      "clean": 5682,
      "crip": 5683,
      "aud": 5684,
      "gen": 5685,
      "clear": 5686,
      "left": 5687,
      "thod": 5688,
      "enough": 5689,
      "connect": 5690,
      "fut": 5691,
      "ik": 5692,
      "Lo": 5693,
      "hal": 5694,
      "wood": 5695,
      "social": 5696,
      "several": 5697,
      "flo": 5698,
      "pecial": 5699,
      "already": 5700,
      "others": 5701,
      "iter": 5702,
      "conom": 5703,
      "board": 5704,
      "iful": 5705,
      "link": 5706,
      "40": 5707,
      "trav": 5708,
      "getting": 5709,
      "phone": 5710,
      "across": 5711,
      "range": 5712,
      "conf": 5713,
      "country": 5714,
      "mind": 5715,
      "below": 5716,
      "May": 5717,
      "purch": 5718,
      "dom": 5719,
      "pie": 5720,
      "break": 5721,
      "aid": 5722,
      "deal": 5723,
      "mission": 5724,
      "called": 5725,
      "prove": 5726,
      "compet": 5727,
      "ensive": 5728,
      "Go": 5729,
      "ww": 5730,
      "fav": 5731,
      "lik": 5732,
      "Car": 5733,
      "ateg": 5734,
      "sell": 5735,
      "season": 5736,
      "typ": 5737,
      "vironment": 5738,
      "live": 5739,
      "wa": 5740,
      "redu": 5741,
      "nat": 5742,
      "offers": 5743,
      "wind": 5744,
      "orig": 5745,
      "AS": 5746,
      "omet": 5747,
      "dam": 5748,
      "ands": 5749,
      "ising": 5750,
      "ances": 5751,
      "companies": 5752,
      "Your": 5753,
      "plain": 5754,
      "example": 5755,
      "major": 5756,
      "60": 5757,
      "cing": 5758,
      "vi": 5759,
      "music": 5760,
      "position": 5761,
      "stop": 5762,
      "urther": 5763,
      "2018": 5764,
      "city": 5765,
      "complet": 5766,
      "ng": 5767,
      "particular": 5768,
      "contain": 5769,
      "value": 5770,
      "priv": 5771,
      "field": 5772,
      "doing": 5773,
      "future": 5774,
      "sour": 5775,
      "IS": 5776,
      "sl": 5777,
      "ination": 5778,
      "--": 5779,
      "uck": 5780,
      "paren": 5781,
      "email": 5782,
      "cred": 5783,
      "ither": 5784,
      "ount": 5785,
      "ief": 5786,
      "industry": 5787,
      "mal": 5788,
      "IT": 5789,
      "curity": 5790,
      "imp": 5791,
      "building": 5792,
      "usu": 5793,
      "gn": 5794,
      "ners": 5795,
      "mean": 5796,
      "ino": 5797,
      "round": 5798,
      "ago": 5799,
      "story": 5800,
      "mil": 5801,
      "acy": 5802,
      "type": 5803,
      "once": 5804,
      "bring": 5805,
      "cording": 5806,
      "camp": 5807,
      "door": 5808,
      "defin": 5809,
      "least": 5810,
      "stay": 5811,
      "claim": 5812,
      "iday": 5813,
      "comb": 5814,
      "ES": 5815,
      "ought": 5816,
      "den": 5817,
      "ides": 5818,
      "199": 5819,
      "ron": 5820,
      "fast": 5821,
      "ips": 5822,
      "card": 5823,
      "hours": 5824,
      "ference": 5825,
      "grad": 5826,
      "reason": 5827,
      "front": 5828,
      "bar": 5829,
      "cript": 5830,
      "started": 5831,
      "Sy": 5832,
      "reach": 5833,
      "Intern": 5834,
      "content": 5835,
      "imes": 5836,
      "recomm": 5837,
      "flow": 5838,
      "study": 5839,
      "invol": 5840,
      "aps": 5841,
      "ster": 5842,
      "Des": 5843,
      "box": 5844,
      "ined": 5845,
      "scre": 5846,
      "actually": 5847,
      "roll": 5848,
      "wide": 5849,
      "fit": 5850,
      "depend": 5851,
      "road": 5852,
      "elf": 5853,
      "cuss": 5854,
      "tax": 5855,
      "ilities": 5856,
      "fill": 5857,
      "strong": 5858,
      "return": 5859,
      "customers": 5860,
      "respons": 5861,
      "Me": 5862,
      "AR": 5863,
      "ints": 5864,
      "features": 5865,
      "video": 5866,
      "solut": 5867,
      "Gu": 5868,
      "given": 5869,
      "address": 5870,
      "heart": 5871,
      "ctor": 5872,
      "professional": 5873,
      "technology": 5874,
      "chall": 5875,
      "super": 5876,
      "didn": 5877,
      "method": 5878,
      "download": 5879,
      "pict": 5880,
      "training": 5881,
      "ane": 5882,
      "Fe": 5883,
      "ared": 5884,
      "cou": 5885,
      "dist": 5886,
      "Of": 5887,
      "ured": 5888,
      "peri": 5889,
      "minutes": 5890,
      "ilt": 5891,
      "tomer": 5892,
      "tware": 5893,
      "offic": 5894,
      "property": 5895,
      "beautiful": 5896,
      "problem": 5897,
      "gar": 5898,
      "please": 5899,
      "surance": 5900,
      "Med": 5901,
      "government": 5902,
      "mot": 5903,
      "def": 5904,
      "Serv": 5905,
      "above": 5906,
      "80": 5907,
      "concer": 5908,
      "iate": 5909,
      "mar": 5910,
      "early": 5911,
      "spir": 5912,
      "AC": 5913,
      "size": 5914,
      "bur": 5915,
      "doesn": 5916,
      "charac": 5917,
      "questions": 5918,
      "environment": 5919,
      "watch": 5920,
      "complete": 5921,
      "mom": 5922,
      "uary": 5923,
      "town": 5924,
      "remain": 5925,
      "begin": 5926,
      "everything": 5927,
      "finan": 5928,
      "table": 5929,
      "million": 5930,
      "ford": 5931,
      "results": 5932,
      "issues": 5933,
      "American": 5934,
      "half": 5935,
      "taking": 5936,
      "sound": 5937,
      "mag": 5938,
      "icy": 5939,
      "track": 5940,
      "itut": 5941,
      "enn": 5942,
      "ele": 5943,
      "ged": 5944,
      "months": 5945,
      "bot": 5946,
      "cult": 5947,
      "OR": 5948,
      "rele": 5949,
      "management": 5950,
      "Some": 5951,
      "econom": 5952,
      "thought": 5953,
      "TH": 5954,
      "author": 5955,
      "Not": 5956,
      "ledge": 5957,
      "single": 5958,
      "mess": 5959,
      "simple": 5960,
      "vo": 5961,
      "provides": 5962,
      "print": 5963,
      "tar": 5964,
      "due": 5965,
      "une": 5966,
      "Ste": 5967,
      "account": 5968,
      "lat": 5969,
      "yet": 5970,
      "AL": 5971,
      "pick": 5972,
      "wards": 5973,
      "Mon": 5974,
      "Please": 5975,
      "reco": 5976,
      "augh": 5977,
      "sho": 5978,
      "pret": 5979,
      "host": 5980,
      "mp": 5981,
      "necess": 5982,
      "color": 5983,
      "uses": 5984,
      "Euro": 5985,
      "select": 5986,
      "various": 5987,
      "Now": 5988,
      "cop": 5989,
      "wer": 5990,
      "urch": 5991,
      "flu": 5992,
      "pair": 5993,
      ",\"": 5994,
      "ows": 5995,
      "friends": 5996,
      "performance": 5997,
      "hope": 5998,
      "improve": 5999,
      "whether": 6000,
      "required": 6001,
      "took": 6002,
      "Per": 6003,
      "mber": 6004,
      "designed": 6005,
      "following": 6006,
      "itor": 6007,
      "percent": 6008,
      "dig": 6009,
      "Sp": 6010,
      "ining": 6011,
      "issue": 6012,
      "fall": 6013,
      "energy": 6014,
      "discuss": 6015,
      "deter": 6016,
      "hn": 6017,
      "duct": 6018,
      "close": 6019,
      "seen": 6020,
      "weight": 6021,
      "word": 6022,
      "media": 6023,
      "speak": 6024,
      "glo": 6025,
      "later": 6026,
      "meas": 6027,
      "ull": 6028,
      "wall": 6029,
      "ibility": 6030,
      "Che": 6031,
      "areas": 6032,
      "While": 6033,
      "rate": 6034,
      "sci": 6035,
      "mid": 6036,
      "ots": 6037,
      "resh": 6038,
      "2017": 6039,
      "Dis": 6040,
      "happen": 6041,
      "ians": 6042,
      "draw": 6043,
      "says": 6044,
      "function": 6045,
      "style": 6046,
      "assist": 6047,
      "comfort": 6048,
      "idence": 6049,
      "approach": 6050,
      "oud": 6051,
      "aving": 6052,
      "ensure": 6053,
      "living": 6054,
      "wonder": 6055,
      "ival": 6056,
      "whole": 6057,
      "IC": 6058,
      "war": 6059,
      "pecially": 6060,
      "customer": 6061,
      "ilar": 6062,
      "ulation": 6063,
      "relation": 6064,
      "further": 6065,
      "went": 6066,
      "ouch": 6067,
      "hair": 6068,
      "idea": 6069,
      "staff": 6070,
      "22": 6071,
      "someone": 6072,
      "nov": 6073,
      "ufact": 6074,
      "ication": 6075,
      "phys": 6076,
      "spect": 6077,
      "especially": 6078,
      "travel": 6079,
      "ift": 6080,
      "gest": 6081,
      "period": 6082,
      "likely": 6083,
      "mor": 6084,
      "Cont": 6085,
      "ention": 6086,
      "United": 6087,
      "Fl": 6088,
      "paper": 6089,
      "includes": 6090,
      "By": 6091,
      "itical": 6092,
      "cook": 6093,
      "sites": 6094,
      "xim": 6095,
      "equip": 6096,
      "band": 6097,
      "needed": 6098,
      "nal": 6099,
      "docu": 6100,
      "protect": 6101,
      "ples": 6102,
      "uation": 6103,
      "posed": 6104,
      "engine": 6105,
      "ai": 6106,
      "cast": 6107,
      "mach": 6108,
      "inc": 6109,
      "among": 6110,
      "lic": 6111,
      "provided": 6112,
      "software": 6113,
      "bi": 6114,
      "office": 6115,
      "uter": 6116,
      "human": 6117,
      "natural": 6118,
      "amount": 6119,
      "signific": 6120,
      "particip": 6121,
      "unique": 6122,
      "either": 6123,
      "women": 6124,
      "exist": 6125,
      "abl": 6126,
      "worth": 6127,
      "cks": 6128,
      "pose": 6129,
      "init": 6130,
      "term": 6131,
      "related": 6132,
      "systems": 6133,
      "lege": 6134,
      "atic": 6135,
      "ife": 6136,
      "believe": 6137,
      "selves": 6138,
      "entire": 6139,
      "ral": 6140,
      "pet": 6141,
      "ables": 6142,
      "Just": 6143,
      "sugg": 6144,
      "choose": 6145,
      "23": 6146,
      "suggest": 6147,
      "five": 6148,
      "vert": 6149,
      "options": 6150,
      "cir": 6151,
      "Europe": 6152,
      "gain": 6153,
      "application": 6154,
      "exc": 6155,
      "series": 6156,
      "iple": 6157,
      "Bu": 6158,
      "oil": 6159,
      "moder": 6160,
      "Don": 6161,
      "user": 6162,
      "mob": 6163,
      "quite": 6164,
      "Cal": 6165,
      "result": 6166,
      "sat": 6167,
      "saf": 6168,
      "brand": 6169,
      "Min": 6170,
      "ently": 6171,
      "potential": 6172,
      "2019": 6173,
      "etc": 6174,
      "asing": 6175,
      "ape": 6176,
      "forward": 6177,
      "resident": 6178,
      "Qu": 6179,
      "resour": 6180,
      "writing": 6181,
      "click": 6182,
      "foot": 6183,
      "pen": 6184,
      "blog": 6185,
      "simply": 6186,
      "history": 6187,
      "ering": 6188,
      "itted": 6189,
      "2016": 6190,
      "dou": 6191,
      "version": 6192,
      "EN": 6193,
      "John": 6194,
      "match": 6195,
      "request": 6196,
      "financial": 6197,
      "mix": 6198,
      "question": 6199,
      "young": 6200,
      "almost": 6201,
      "words": 6202,
      "lex": 6203,
      "yourself": 6204,
      "ided": 6205,
      "aged": 6206,
      "diffic": 6207,
      "ED": 6208,
      "irl": 6209,
      "Cr": 6210,
      "ule": 6211,
      "fire": 6212,
      "AM": 6213,
      "represent": 6214,
      "ming": 6215,
      "white": 6216,
      "favor": 6217,
      "added": 6218,
      "knowledge": 6219,
      "wish": 6220,
      "dy": 6221,
      "aging": 6222,
      "ideas": 6223,
      "contract": 6224,
      "taken": 6225,
      "everyone": 6226,
      "collect": 6227,
      "City": 6228,
      "bank": 6229,
      "bon": 6230,
      "security": 6231,
      "ification": 6232,
      "Sun": 6233,
      "text": 6234,
      "err": 6235,
      "active": 6236,
      "School": 6237,
      "aur": 6238,
      "Cor": 6239,
      "ges": 6240,
      "aren": 6241,
      "tour": 6242,
      "Part": 6243,
      "skin": 6244,
      "ned": 6245,
      "regard": 6246,
      "wel": 6247,
      "soon": 6248,
      "sen": 6249,
      "party": 6250,
      "deliver": 6251,
      "popular": 6252,
      "events": 6253,
      "however": 6254,
      "Mo": 6255,
      "ires": 6256,
      "anything": 6257,
      "struction": 6258,
      "stor": 6259,
      "users": 6260,
      "bad": 6261,
      "changes": 6262,
      "common": 6263,
      "rect": 6264,
      "Here": 6265,
      "significant": 6266,
      "insurance": 6267,
      "itional": 6268,
      "learning": 6269,
      "veh": 6270,
      "sent": 6271,
      "ators": 6272,
      "problems": 6273,
      "fee": 6274,
      "icro": 6275,
      "created": 6276,
      "amaz": 6277,
      "tre": 6278,
      "South": 6279,
      "store": 6280,
      "AP": 6281,
      "located": 6282,
      "70": 6283,
      "eral": 6284,
      "black": 6285,
      "manufact": 6286,
      "ony": 6287,
      "ee": 6288,
      "games": 6289,
      "risk": 6290,
      "tt": 6291,
      "Stud": 6292,
      "angu": 6293,
      "third": 6294,
      "partment": 6295,
      "aver": 6296,
      "usually": 6297,
      "sle": 6298,
      "ports": 6299,
      "walk": 6300,
      "sem": 6301,
      "lower": 6302,
      "else": 6303,
      "plant": 6304,
      "ene": 6305,
      "National": 6306,
      "High": 6307,
      "impact": 6308,
      "clients": 6309,
      "regular": 6310,
      "ork": 6311,
      "tegr": 6312,
      "famil": 6313,
      "display": 6314,
      "establ": 6315,
      "hom": 6316,
      "fail": 6317,
      "associ": 6318,
      "His": 6319,
      "firm": 6320,
      "plement": 6321,
      "wanted": 6322,
      "respect": 6323,
      "bill": 6324,
      "reading": 6325,
      "receive": 6326,
      "built": 6327,
      "details": 6328,
      ".”": 6329,
      "Su": 6330,
      "ert": 6331,
      "OS": 6332,
      "news": 6333,
      "screen": 6334,
      "kids": 6335,
      "astic": 6336,
      "books": 6337,
      "21": 6338,
      "seem": 6339,
      "feature": 6340,
      "Inst": 6341,
      "corpor": 6342,
      "Will": 6343,
      "option": 6344,
      "education": 6345,
      "ishing": 6346,
      "bably": 6347,
      "ometimes": 6348,
      "relationship": 6349,
      "code": 6350,
      "increase": 6351,
      "World": 6352,
      "wed": 6353,
      "Jan": 6354,
      "ises": 6355,
      "North": 6356,
      "treatment": 6357,
      "subject": 6358,
      "26": 6359,
      "State": 6360,
      "From": 6361,
      "recommend": 6362,
      "jour": 6363,
      "previous": 6364,
      "acc": 6365,
      "Park": 6366,
      "spr": 6367,
      "throughout": 6368,
      "takes": 6369,
      "similar": 6370,
      "via": 6371,
      "reet": 6372,
      "Mr": 6373,
      "28": 6374,
      "Apr": 6375,
      "image": 6376,
      "opportunity": 6377,
      "higher": 6378,
      "Im": 6379,
      "ches": 6380,
      "anced": 6381,
      "ses": 6382,
      "suit": 6383,
      "hor": 6384,
      "Thanks": 6385,
      "role": 6386,
      "soft": 6387,
      "sun": 6388,
      "log": 6389,
      "crib": 6390,
      "eter": 6391,
      "sed": 6392,
      "skills": 6393,
      "effic": 6394,
      "currently": 6395,
      "practice": 6396,
      "held": 6397,
      "sales": 6398,
      "mun": 6399,
      "matter": 6400,
      "drop": 6401,
      "elt": 6402,
      "hind": 6403,
      "points": 6404,
      "standard": 6405,
      "happy": 6406,
      "credit": 6407,
      "Pe": 6408,
      "projects": 6409,
      "park": 6410,
      "Bar": 6411,
      "production": 6412,
      "tries": 6413,
      "labor": 6414,
      "talk": 6415,
      "mas": 6416,
      "commer": 6417,
      "excell": 6418,
      "continue": 6419,
      "rather": 6420,
      "outside": 6421,
      "location": 6422,
      "private": 6423,
      "ging": 6424,
      "additional": 6425,
      "force": 6426,
      "original": 6427,
      "ID": 6428,
      "rad": 6429,
      "extra": 6430,
      "necessary": 6431,
      "recogn": 6432,
      "sens": 6433,
      "ker": 6434,
      "easily": 6435,
      "uge": 6436,
      "loss": 6437,
      "anim": 6438,
      "difficult": 6439,
      "running": 6440,
      "trying": 6441,
      "sess": 6442,
      "ecut": 6443,
      "lands": 6444,
      "covered": 6445,
      "probably": 6446,
      "2015": 6447,
      "intro": 6448,
      "continu": 6449,
      "choice": 6450,
      "final": 6451,
      "gress": 6452,
      "cot": 6453,
      "Act": 6454,
      "hon": 6455,
      "object": 6456,
      "Mark": 6457,
      "cool": 6458,
      "fix": 6459,
      "variety": 6460,
      "amer": 6461,
      "autom": 6462,
      "27": 6463,
      "received": 6464,
      "activities": 6465,
      "ays": 6466,
      "six": 6467,
      "character": 6468,
      "isn": 6469,
      "maintain": 6470,
      "marketing": 6471,
      "ees": 6472,
      "true": 6473,
      "file": 6474,
      "drive": 6475,
      "ases": 6476,
      "uff": 6477,
      "??": 6478,
      "York": 6479,
      "Reg": 6480,
      "according": 6481,
      "items": 6482,
      "general": 6483,
      "plat": 6484,
      "accept": 6485,
      "longer": 6486,
      "aily": 6487,
      "inside": 6488,
      "sequ": 6489,
      "cannot": 6490,
      "total": 6491,
      "Eng": 6492,
      "tit": 6493,
      "fig": 6494,
      "prior": 6495,
      "answer": 6496,
      "film": 6497,
      "safe": 6498,
      "dog": 6499,
      "apply": 6500,
      "pretty": 6501,
      "save": 6502,
      "Am": 6503,
      "itten": 6504,
      "modern": 6505,
      "brow": 6506,
      "speed": 6507,
      "Cent": 6508,
      "agre": 6509,
      "allows": 6510,
      "effective": 6511,
      "exact": 6512,
      "legal": 6513,
      "ends": 6514,
      "official": 6515,
      "icated": 6516,
      "smo": 6517,
      "ica": 6518,
      "respon": 6519,
      "gets": 6520,
      "Comp": 6521,
      "itchen": 6522,
      "told": 6523,
      "Fin": 6524,
      "ps": 6525,
      "Ed": 6526,
      "computer": 6527,
      "hib": 6528,
      "core": 6529,
      "growth": 6530,
      "craf": 6531,
      "stain": 6532,
      "Austr": 6533,
      "90": 6534,
      "ules": 6535,
      "SE": 6536,
      "cert": 6537,
      "Po": 6538,
      "har": 6539,
      "integr": 6540,
      "section": 6541,
      "Ge": 6542,
      "shall": 6543,
      "materials": 6544,
      "swe": 6545,
      "mine": 6546,
      "Au": 6547,
      "lock": 6548,
      "setting": 6549,
      "touch": 6550,
      "ada": 6551,
      "appear": 6552,
      "inj": 6553,
      "quickly": 6554,
      "feed": 6555,
      "ministr": 6556,
      "Sm": 6557,
      "mail": 6558,
      "amazing": 6559,
      "UK": 6560,
      "upon": 6561,
      "contribut": 6562,
      "correct": 6563,
      "ama": 6564,
      "rooms": 6565,
      "costs": 6566,
      "ban": 6567,
      "35": 6568,
      "Pol": 6569,
      "izing": 6570,
      "States": 6571,
      "ns": 6572,
      "weeks": 6573,
      "ST": 6574,
      "mod": 6575,
      "Her": 6576,
      "shows": 6577,
      "mobile": 6578,
      "atter": 6579,
      "tee": 6580,
      "parts": 6581,
      "Add": 6582,
      "earch": 6583,
      "avo": 6584,
      "leave": 6585,
      "Art": 6586,
      "worked": 6587,
      "announ": 6588,
      "ux": 6589,
      "lay": 6590,
      "floor": 6591,
      "Are": 6592,
      "2014": 6593,
      "ham": 6594,
      "sched": 6595,
      "included": 6596,
      "CO": 6597,
      "Every": 6598,
      "enced": 6599,
      "prim": 6600,
      "\".": 6601,
      "tle": 6602,
      "affect": 6603,
      "vision": 6604,
      "April": 6605,
      "ison": 6606,
      "ceed": 6607,
      "providing": 6608,
      "summer": 6609,
      "ental": 6610,
      "Sep": 6611,
      "refer": 6612,
      "medical": 6613,
      "policy": 6614,
      "Fir": 6615,
      "prepare": 6616,
      "Tw": 6617,
      "idge": 6618,
      "Par": 6619,
      "solution": 6620,
      "cup": 6621,
      "latest": 6622,
      "article": 6623,
      "limited": 6624,
      "leading": 6625,
      "tools": 6626,
      "West": 6627,
      "purchase": 6628,
      "langu": 6629,
      "giving": 6630,
      "explo": 6631,
      "ience": 6632,
      "const": 6633,
      "types": 6634,
      "network": 6635,
      "Center": 6636,
      "looks": 6637,
      "equipment": 6638,
      "lives": 6639,
      "ably": 6640,
      "Then": 6641,
      "condition": 6642,
      "patients": 6643,
      "conditions": 6644,
      "Most": 6645,
      "anyone": 6646,
      "couple": 6647,
      "center": 6648,
      "behind": 6649,
      "task": 6650,
      "bir": 6651,
      "expected": 6652,
      "bud": 6653,
      "piece": 6654,
      "wise": 6655,
      "adem": 6656,
      "fresh": 6657,
      "terms": 6658,
      "Ger": 6659,
      "proved": 6660,
      "gas": 6661,
      "terr": 6662,
      "cru": 6663,
      "ysis": 6664,
      "ension": 6665,
      "Ab": 6666,
      "Ju": 6667,
      "ties": 6668,
      "nice": 6669,
      "prevent": 6670,
      "cases": 6671,
      "45": 6672,
      "sil": 6673,
      "late": 6674,
      "immed": 6675,
      "More": 6676,
      "forms": 6677,
      "international": 6678,
      "appl": 6679,
      "challeng": 6680,
      "Mc": 6681,
      "ware": 6682,
      "deep": 6683,
      "introdu": 6684,
      "TV": 6685,
      "arter": 6686,
      "programs": 6687,
      "ler": 6688,
      "icles": 6689,
      "source": 6690,
      "Also": 6691,
      "qual": 6692,
      "compl": 6693,
      "remo": 6694,
      "ights": 6695,
      "cele": 6696,
      "dry": 6697,
      "nia": 6698,
      "Day": 6699,
      "student": 6700,
      "recently": 6701,
      "cand": 6702,
      "Let": 6703,
      "record": 6704,
      "dle": 6705,
      "sale": 6706,
      "heav": 6707,
      "separ": 6708,
      "asked": 6709,
      "fa": 6710,
      "nothing": 6711,
      "//": 6712,
      "trust": 6713,
      "sec": 6714,
      "ana": 6715,
      "explain": 6716,
      "bath": 6717,
      "celebr": 6718,
      "song": 6719,
      "izes": 6720,
      "Austral": 6721,
      "29": 6722,
      "written": 6723,
      "Rep": 6724,
      "expert": 6725,
      "iam": 6726,
      "II": 6727,
      "seems": 6728,
      "leaders": 6729,
      "remember": 6730,
      "Get": 6731,
      "suf": 6732,
      "cul": 6733,
      "excellent": 6734,
      "iqu": 6735,
      "Up": 6736,
      "appoint": 6737,
      "meeting": 6738,
      "ctions": 6739,
      "aware": 6740,
      "safety": 6741,
      "RO": 6742,
      "March": 6743,
      "Dev": 6744,
      "aves": 6745,
      "plans": 6746,
      "collection": 6747,
      "goal": 6748,
      "hood": 6749,
      "Health": 6750,
      "arden": 6751,
      "levels": 6752,
      "cil": 6753,
      "base": 6754,
      "Oc": 6755,
      "ring": 6756,
      "lines": 6757,
      "Val": 6758,
      "commercial": 6759,
      "parents": 6760,
      "except": 6761,
      "ead": 6762,
      "ease": 6763,
      "iding": 6764,
      "ogle": 6765,
      "erg": 6766,
      "green": 6767,
      "device": 6768,
      "agement": 6769,
      "iet": 6770,
      "atory": 6771,
      "ram": 6772,
      "sets": 6773,
      "America": 6774,
      "benefits": 6775,
      "hour": 6776,
      "suppl": 6777,
      "launch": 6778,
      "highly": 6779,
      "sense": 6780,
      "glass": 6781,
      "ze": 6782,
      "mass": 6783,
      "trip": 6784,
      "charge": 6785,
      "IP": 6786,
      "First": 6787,
      "resources": 6788,
      "fair": 6789,
      "iers": 6790,
      "write": 6791,
      "digital": 6792,
      "mention": 6793,
      "minim": 6794,
      "Many": 6795,
      "preci": 6796,
      "uss": 6797,
      "hit": 6798,
      "ellow": 6799,
      "istic": 6800,
      "reng": 6801,
      "decision": 6802,
      "morning": 6803,
      "Sat": 6804,
      "na": 6805,
      "actions": 6806,
      "ifor": 6807,
      "encour": 6808,
      "ender": 6809,
      "sam": 6810,
      "chance": 6811,
      "daily": 6812,
      "bag": 6813,
      "furn": 6814,
      "hous": 6815,
      "squ": 6816,
      "prices": 6817,
      "express": 6818,
      "clus": 6819,
      "multiple": 6820,
      "upd": 6821,
      "ille": 6822,
      "heat": 6823,
      "solutions": 6824,
      "countries": 6825,
      "gives": 6826,
      "requirements": 6827,
      "cription": 6828,
      "LE": 6829,
      "CA": 6830,
      "inary": 6831,
      "Air": 6832,
      "Even": 6833,
      "Book": 6834,
      "images": 6835,
      "moment": 6836,
      "favorite": 6837,
      "ifornia": 6838,
      "County": 6839,
      "iction": 6840,
      "helps": 6841,
      "Well": 6842,
      "Once": 6843,
      "ox": 6844,
      "Home": 6845,
      "aking": 6846,
      "global": 6847,
      "Inter": 6848,
      "involved": 6849,
      "itself": 6850,
      "commit": 6851,
      "akes": 6852,
      "Any": 6853,
      "essential": 6854,
      "advant": 6855,
      "strate": 6856,
      "send": 6857,
      "instead": 6858,
      "inner": 6859,
      "Why": 6860,
      "Wind": 6861,
      "rout": 6862,
      "Great": 6863,
      "serve": 6864,
      "document": 6865,
      "themselves": 6866,
      "repair": 6867,
      "block": 6868,
      "average": 6869,
      "htt": 6870,
      "innov": 6871,
      "stock": 6872,
      "www": 6873,
      "mm": 6874,
      "tic": 6875,
      "ountain": 6876,
      "2013": 6877,
      "Har": 6878,
      "Ho": 6879,
      "chem": 6880,
      "owners": 6881,
      "nut": 6882,
      "kitchen": 6883,
      "fre": 6884,
      "MS": 6885,
      "occur": 6886,
      "Web": 6887,
      "International": 6888,
      "places": 6889,
      "attract": 6890,
      "deb": 6891,
      "saw": 6892,
      "hear": 6893,
      "”.": 6894,
      "198": 6895,
      "implement": 6896,
      "directly": 6897,
      "Black": 6898,
      "House": 6899,
      "Sal": 6900,
      "NO": 6901,
      "note": 6902,
      "Off": 6903,
      "placed": 6904,
      "75": 6905,
      "org": 6906,
      "client": 6907,
      "erc": 6908,
      "machine": 6909,
      "://": 6910,
      "cross": 6911,
      "Direct": 6912,
      "planning": 6913,
      "huge": 6914,
      "decided": 6915,
      "imate": 6916,
      "prem": 6917,
      "ites": 6918,
      "lost": 6919,
      "Lon": 6920,
      "Since": 6921,
      "atives": 6922,
      "guest": 6923,
      "ublic": 6924,
      "iture": 6925,
      "erous": 6926,
      "register": 6927,
      "scal": 6928,
      "girl": 6929,
      "cture": 6930,
      "photograph": 6931,
      "playing": 6932,
      "pool": 6933,
      "2012": 6934,
      "jud": 6935,
      "36": 6936,
      "van": 6937,
      "career": 6938,
      "rich": 6939,
      "streng": 6940,
      "nes": 6941,
      "path": 6942,
      "reas": 6943,
      "PS": 6944,
      "itation": 6945,
      "interesting": 6946,
      "ny": 6947,
      "appropr": 6948,
      "attention": 6949,
      "June": 6950,
      "developed": 6951,
      "blood": 6952,
      "former": 6953,
      "ades": 6954,
      "creating": 6955,
      "Red": 6956,
      "completely": 6957,
      "partners": 6958,
      "myself": 6959,
      "imm": 6960,
      "served": 6961,
      "consul": 6962,
      "lots": 6963,
      "consist": 6964,
      "death": 6965,
      "San": 6966,
      "PC": 6967,
      "sis": 6968,
      "copy": 6969,
      "Sci": 6970,
      "successful": 6971,
      "Sk": 6972,
      "attack": 6973,
      "surpr": 6974,
      "restaur": 6975,
      "supply": 6976,
      "organization": 6977,
      "Engl": 6978,
      "tick": 6979,
      "goes": 6980,
      "traditional": 6981,
      "aign": 6982,
      "thinking": 6983,
      "standing": 6984,
      "ivity": 6985,
      "warm": 6986,
      "Dav": 6987,
      "execut": 6988,
      "dest": 6989,
      "English": 6990,
      "500": 6991,
      "sometimes": 6992,
      "Pre": 6993,
      "groups": 6994,
      "achieve": 6995,
      "cret": 6996,
      "ume": 6997,
      "bs": 6998,
      "born": 6999,
      "Google": 7000,
      "El": 7001,
      "prefer": 7002,
      "promot": 7003,
      "tur": 7004,
      "India": 7005,
      "acqu": 7006,
      "olution": 7007,
      "onto": 7008,
      "photos": 7009,
      "serious": 7010,
      "Net": 7011,
      "Aug": 7012,
      "UR": 7013,
      "sort": 7014,
      "ements": 7015,
      "Sim": 7016,
      "Free": 7017,
      "Afr": 7018,
      "players": 7019,
      "cat": 7020,
      "court": 7021,
      "Wal": 7022,
      "construction": 7023,
      "haps": 7024,
      "uk": 7025,
      "obtain": 7026,
      "paid": 7027,
      "sn": 7028,
      "ening": 7029,
      "Gre": 7030,
      "Sup": 7031,
      "Associ": 7032,
      "complex": 7033,
      "Gener": 7034,
      "analysis": 7035,
      "ieved": 7036,
      "rain": 7037,
      "target": 7038,
      "drug": 7039,
      "spend": 7040,
      "applications": 7041,
      "picture": 7042,
      "illed": 7043,
      "Bus": 7044,
      "Gl": 7045,
      "decor": 7046,
      "33": 7047,
      "Je": 7048,
      "ivery": 7049,
      "ibr": 7050,
      "healthy": 7051,
      "tober": 7052,
      "language": 7053,
      "growing": 7054,
      "vey": 7055,
      "Brit": 7056,
      "President": 7057,
      "urs": 7058,
      "temper": 7059,
      "rights": 7060,
      "January": 7061,
      "ological": 7062,
      "ington": 7063,
      "became": 7064,
      "drink": 7065,
      "sold": 7066,
      "ung": 7067,
      "scr": 7068,
      "fab": 7069,
      "starting": 7070,
      "formed": 7071,
      "empor": 7072,
      "activity": 7073,
      "stream": 7074,
      "itely": 7075,
      "gold": 7076,
      "towards": 7077,
      "ester": 7078,
      "Service": 7079,
      "thern": 7080,
      "Pat": 7081,
      "release": 7082,
      "aul": 7083,
      "entry": 7084,
      "conduct": 7085,
      "Friday": 7086,
      "interested": 7087,
      "spot": 7088,
      "empt": 7089,
      "2011": 7090,
      "China": 7091,
      "Design": 7092,
      "individuals": 7093,
      "vehicle": 7094,
      "October": 7095,
      "regul": 7096,
      "employees": 7097,
      "hands": 7098,
      "considered": 7099,
      "distribut": 7100,
      "London": 7101,
      "nature": 7102,
      "categ": 7103,
      "fan": 7104,
      "IL": 7105,
      "stress": 7106,
      "rup": 7107,
      "ran": 7108,
      "pm": 7109,
      "altern": 7110,
      "uate": 7111,
      "chan": 7112,
      "31": 7113,
      "bey": 7114,
      "July": 7115,
      "ibly": 7116,
      "carry": 7117,
      "businesses": 7118,
      "Ke": 7119,
      "aces": 7120,
      "gree": 7121,
      "guide": 7122,
      "damage": 7123,
      "Mus": 7124,
      "igation": 7125,
      "CE": 7126,
      "began": 7127,
      "uel": 7128,
      "assess": 7129,
      "Char": 7130,
      "friendly": 7131,
      "cry": 7132,
      "hab": 7133,
      "analy": 7134,
      "Each": 7135,
      "ri": 7136,
      "enh": 7137,
      "strateg": 7138,
      "rock": 7139,
      "ato": 7140,
      "understanding": 7141,
      "apart": 7142,
      "ength": 7143,
      "iately": 7144,
      "published": 7145,
      "purpose": 7146,
      "profession": 7147,
      "iring": 7148,
      "Out": 7149,
      "Rem": 7150,
      "TO": 7151,
      "wear": 7152,
      "storage": 7153,
      "apan": 7154,
      "Trans": 7155,
      "wonderful": 7156,
      "isions": 7157,
      "arant": 7158,
      "proced": 7159,
      "pages": 7160,
      "Over": 7161,
      "Cour": 7162,
      "Techn": 7163,
      "eye": 7164,
      "idents": 7165,
      "positive": 7166,
      "letter": 7167,
      "message": 7168,
      "unit": 7169,
      "lin": 7170,
      "wrong": 7171,
      "finish": 7172,
      "Jes": 7173,
      "thus": 7174,
      "iew": 7175,
      "dol": 7176,
      "nation": 7177,
      "AD": 7178,
      "posted": 7179,
      "plate": 7180,
      "dream": 7181,
      "iles": 7182,
      "region": 7183,
      "cash": 7184,
      "organiz": 7185,
      "Christmas": 7186,
      "church": 7187,
      "mis": 7188,
      "frequ": 7189,
      "investment": 7190,
      "enge": 7191,
      "physical": 7192,
      "99": 7193,
      "consum": 7194,
      "comfortable": 7195,
      "moving": 7196,
      "definitely": 7197,
      "exactly": 7198,
      "pressure": 7199,
      "progress": 7200,
      "aste": 7201,
      "situation": 7202,
      "campaign": 7203,
      "dark": 7204,
      "award": 7205,
      "itute": 7206,
      "satis": 7207,
      "iment": 7208,
      "hop": 7209,
      "eat": 7210,
      "Prof": 7211,
      "influ": 7212,
      "ida": 7213,
      "wait": 7214,
      "Hol": 7215,
      "exerc": 7216,
      "grade": 7217,
      "internet": 7218,
      "felt": 7219,
      "smart": 7220,
      "tember": 7221,
      "impress": 7222,
      "histor": 7223,
      "spo": 7224,
      "Commun": 7225,
      "Rev": 7226,
      "div": 7227,
      "War": 7228,
      "difference": 7229,
      "Group": 7230,
      "families": 7231,
      "September": 7232,
      "UN": 7233,
      "slow": 7234,
      "holiday": 7235,
      "iced": 7236,
      "opportunities": 7237,
      "master": 7238,
      "blue": 7239,
      "diag": 7240,
      "response": 7241,
      "thr": 7242,
      "sleep": 7243,
      "Japan": 7244,
      "chair": 7245,
      "2010": 7246,
      "subst": 7247,
      "advis": 7248,
      "frame": 7249,
      "devices": 7250,
      "demand": 7251,
      "Services": 7252,
      "enty": 7253,
      "dependent": 7254,
      "stick": 7255,
      "ING": 7256,
      "Sam": 7257,
      "mother": 7258,
      "88": 7259,
      "Inc": 7260,
      "afford": 7261,
      "Tod": 7262,
      "rates": 7263,
      "Law": 7264,
      "Mod": 7265,
      "reli": 7266,
      "reser": 7267,
      "broad": 7268,
      "stage": 7269,
      "effort": 7270,
      "fine": 7271,
      "avoid": 7272,
      "patient": 7273,
      "viol": 7274,
      "pattern": 7275,
      "extrem": 7276,
      "administr": 7277,
      "loved": 7278,
      "ederal": 7279,
      "stuff": 7280,
      "Click": 7281,
      "reduce": 7282,
      "views": 7283,
      "normal": 7284,
      "Read": 7285,
      "goals": 7286,
      "Ear": 7287,
      "King": 7288,
      "accur": 7289,
      "rench": 7290,
      "benefit": 7291,
      "bul": 7292,
      "offering": 7293,
      "camer": 7294,
      "appropriate": 7295,
      "comment": 7296,
      "solid": 7297,
      "Face": 7298,
      "describ": 7299,
      "surface": 7300,
      "sav": 7301,
      "determin": 7302,
      "ET": 7303,
      "delivery": 7304,
      "tele": 7305,
      "neigh": 7306,
      "orge": 7307,
      "Best": 7308,
      "See": 7309,
      "yl": 7310,
      "wedding": 7311,
      "venue": 7312,
      "Good": 7313,
      "antly": 7314,
      "Department": 7315,
      "erson": 7316,
      "dress": 7317,
      "payment": 7318,
      "32": 7319,
      "club": 7320,
      "THE": 7321,
      "Mem": 7322,
      "La": 7323,
      "Bel": 7324,
      "operation": 7325,
      "CH": 7326,
      "fish": 7327,
      "abs": 7328,
      "Sch": 7329,
      "existing": 7330,
      "iar": 7331,
      "umb": 7332,
      "counts": 7333,
      "economic": 7334,
      "aspect": 7335,
      "indic": 7336,
      "changed": 7337,
      "stone": 7338,
      "maxim": 7339,
      "eval": 7340,
      "Russ": 7341,
      "Although": 7342,
      "vember": 7343,
      "ville": 7344,
      "compon": 7345,
      "pictures": 7346,
      "apy": 7347,
      "easier": 7348,
      "budget": 7349,
      "effects": 7350,
      "ken": 7351,
      "clin": 7352,
      "shown": 7353,
      "fant": 7354,
      "offee": 7355,
      "Sw": 7356,
      "advert": 7357,
      "structure": 7358,
      "November": 7359,
      "platform": 7360,
      "released": 7361,
      "initial": 7362,
      "Business": 7363,
      "Pal": 7364,
      "Dece": 7365,
      "advice": 7366,
      "baby": 7367,
      "birth": 7368,
      "appreci": 7369,
      "experienced": 7370,
      "optim": 7371,
      "oring": 7372,
      "produce": 7373,
      "hotel": 7374,
      "heard": 7375,
      "industr": 7376,
      "carr": 7377,
      "respond": 7378,
      "offered": 7379,
      "imag": 7380,
      "48": 7381,
      "surround": 7382,
      "Company": 7383,
      "schools": 7384,
      "Jesus": 7385,
      "aly": 7386,
      "degree": 7387,
      "dat": 7388,
      "cel": 7389,
      "tag": 7390,
      "System": 7391,
      "fight": 7392,
      "irt": 7393,
      "December": 7394,
      "associated": 7395,
      "East": 7396,
      "communic": 7397,
      "beha": 7398,
      "stra": 7399,
      "hosp": 7400,
      "demon": 7401,
      "Sunday": 7402,
      "gave": 7403,
      "basic": 7404,
      "Whe": 7405,
      "push": 7406,
      "spent": 7407,
      "overall": 7408,
      "lier": 7409,
      "useful": 7410,
      "transfer": 7411,
      "PM": 7412,
      "measure": 7413,
      "European": 7414,
      "Down": 7415,
      "auto": 7416,
      "bow": 7417,
      "stories": 7418,
      "Satur": 7419,
      "lack": 7420,
      "culture": 7421,
      "regarding": 7422,
      "responsible": 7423,
      "California": 7424,
      "Internet": 7425,
      "ture": 7426,
      "plus": 7427,
      "bert": 7428,
      "guarant": 7429,
      "reflect": 7430,
      "bottom": 7431,
      "IG": 7432,
      "Str": 7433,
      "double": 7434,
      "August": 7435,
      "pite": 7436,
      "efficient": 7437,
      "IM": 7438,
      "beginning": 7439,
      "Sto": 7440,
      "star": 7441,
      "arily": 7442,
      "increasing": 7443,
      "attle": 7444,
      "AB": 7445,
      "length": 7446,
      "brought": 7447,
      "college": 7448,
      "tried": 7449,
      "Ben": 7450,
      "particularly": 7451,
      "truly": 7452,
      "weather": 7453,
      "grand": 7454,
      "resist": 7455,
      "certainly": 7456,
      "homes": 7457,
      "adjust": 7458,
      "aling": 7459,
      "syn": 7460,
      "Wash": 7461,
      "antic": 7462,
      "util": 7463,
      "feeling": 7464,
      "vest": 7465,
      "player": 7466,
      "Post": 7467,
      "transport": 7468,
      "join": 7469,
      "ague": 7470,
      "trade": 7471,
      "wasn": 7472,
      "Pho": 7473,
      "tren": 7474,
      "increased": 7475,
      "spirit": 7476,
      "wid": 7477,
      "shot": 7478,
      "eyes": 7479,
      "Flor": 7480,
      "extremely": 7481,
      "immediately": 7482,
      "farm": 7483,
      "rid": 7484,
      "ads": 7485,
      "cards": 7486,
      "55": 7487,
      "loan": 7488,
      "basis": 7489,
      "Ret": 7490,
      "reported": 7491,
      "science": 7492,
      "furniture": 7493,
      "rank": 7494,
      "iant": 7495,
      "ideal": 7496,
      "Make": 7497,
      "political": 7498,
      "Hel": 7499,
      "fru": 7500,
      "ashion": 7501,
      "za": 7502,
      "anc": 7503,
      "Look": 7504,
      "bol": 7505,
      "weekend": 7506,
      "Spe": 7507,
      "oul": 7508,
      "owner": 7509,
      "compared": 7510,
      "annual": 7511,
      "beyond": 7512,
      "income": 7513,
      "__": 7514,
      "Check": 7515,
      "istry": 7516,
      "icing": 7517,
      "College": 7518,
      "largest": 7519,
      "Find": 7520,
      "agree": 7521,
      "itary": 7522,
      "mort": 7523,
      "ston": 7524,
      "steps": 7525,
      "Research": 7526,
      "alone": 7527,
      "highest": 7528,
      "ously": 7529,
      "Phil": 7530,
      "vot": 7531,
      "conven": 7532,
      "rew": 7533,
      "Del": 7534,
      "Ang": 7535,
      "Yes": 7536,
      "Febr": 7537,
      "neg": 7538,
      "liter": 7539,
      "dead": 7540,
      "emporary": 7541,
      "movie": 7542,
      "tor": 7543,
      "selection": 7544,
      "decl": 7545,
      "profit": 7546,
      "background": 7547,
      "EL": 7548,
      "father": 7549,
      "completed": 7550,
      "Ber": 7551,
      "useum": 7552,
      "played": 7553,
      "Saturday": 7554,
      "Board": 7555,
      "although": 7556,
      "meaning": 7557,
      "batter": 7558,
      "ration": 7559,
      "Canada": 7560,
      "pred": 7561,
      "gift": 7562,
      "reve": 7563,
      "rown": 7564,
      "February": 7565,
      "notice": 7566,
      "feet": 7567,
      "Facebook": 7568,
      "Mag": 7569,
      "thous": 7570,
      "race": 7571,
      "files": 7572,
      "Gold": 7573,
      "Cap": 7574,
      "secure": 7575,
      "fat": 7576,
      "Today": 7577,
      "44": 7578,
      "sustain": 7579,
      "thank": 7580,
      "helping": 7581,
      "Because": 7582,
      "partner": 7583,
      "allowed": 7584,
      "thanks": 7585,
      "powerful": 7586,
      "sych": 7587,
      "switch": 7588,
      "duc": 7589,
      "instruct": 7590,
      "doors": 7591,
      "cycl": 7592,
      "electric": 7593,
      "protection": 7594,
      "Bank": 7595,
      "sharing": 7596,
      "iation": 7597,
      "insp": 7598,
      "maybe": 7599,
      "anch": 7600,
      "Spr": 7601,
      "Cur": 7602,
      "lights": 7603,
      "disease": 7604,
      "vant": 7605,
      "creative": 7606,
      "concept": 7607,
      "ube": 7608,
      "consult": 7609,
      "advantage": 7610,
      "capac": 7611,
      "Other": 7612,
      "mitted": 7613,
      "iff": 7614,
      "hi": 7615,
      "emot": 7616,
      "istics": 7617,
      "Indian": 7618,
      "strict": 7619,
      "ologies": 7620,
      "tenance": 7621,
      "collabor": 7622,
      "absolut": 7623,
      "cars": 7624,
      "Sol": 7625,
      "http": 7626,
      "pieces": 7627,
      "estate": 7628,
      "Street": 7629,
      "relax": 7630,
      "Use": 7631,
      "cab": 7632,
      "olf": 7633,
      "Oh": 7634,
      "itter": 7635,
      "established": 7636,
      "encies": 7637,
      "controll": 7638,
      "lying": 7639,
      "models": 7640,
      "Mac": 7641,
      "scient": 7642,
      "Ma": 7643,
      "dish": 7644,
      "orders": 7645,
      "abilities": 7646,
      "earn": 7647,
      "identify": 7648,
      "coach": 7649,
      "Super": 7650,
      "methods": 7651,
      "Wed": 7652,
      "65": 7653,
      "Bro": 7654,
      "zz": 7655,
      "ios": 7656,
      "CD": 7657,
      "ero": 7658,
      "Windows": 7659,
      "challenge": 7660,
      "craft": 7661,
      "knew": 7662,
      "ored": 7663,
      "teams": 7664,
      "greater": 7665,
      "cape": 7666,
      "Hot": 7667,
      "turned": 7668,
      "chann": 7669,
      "technical": 7670,
      "straight": 7671,
      "item": 7672,
      "forts": 7673,
      "tail": 7674,
      "nearly": 7675,
      "iques": 7676,
      "LO": 7677,
      "numbers": 7678,
      "Program": 7679,
      "Scot": 7680,
      "rules": 7681,
      "reasons": 7682,
      "icious": 7683,
      "states": 7684,
      "candid": 7685,
      "edge": 7686,
      "Port": 7687,
      "ju": 7688,
      "threat": 7689,
      "mechan": 7690,
      "communication": 7691,
      "helped": 7692,
      "PA": 7693,
      "wine": 7694,
      "woman": 7695,
      "Ob": 7696,
      "ager": 7697,
      "capital": 7698,
      "52": 7699,
      "multi": 7700,
      "exhib": 7701,
      "ronic": 7702,
      "Devel": 7703,
      "39": 7704,
      "imin": 7705,
      "unte": 7706,
      "SS": 7707,
      "White": 7708,
      "looked": 7709,
      "garden": 7710,
      "micro": 7711,
      "server": 7712,
      "owned": 7713,
      "connection": 7714,
      "strategy": 7715,
      "ican": 7716,
      "undred": 7717,
      "corporate": 7718,
      "affic": 7719,
      "plants": 7720,
      "roof": 7721,
      "Sur": 7722,
      "journey": 7723,
      "listed": 7724,
      "larger": 7725,
      "occas": 7726,
      "atever": 7727,
      "century": 7728,
      "bound": 7729,
      "MA": 7730,
      "atively": 7731,
      "Play": 7732,
      "During": 7733,
      "atically": 7734,
      "experts": 7735,
      "37": 7736,
      "Have": 7737,
      "gage": 7738,
      "selling": 7739,
      "circ": 7740,
      "Gover": 7741,
      "Sub": 7742,
      "monitor": 7743,
      "bum": 7744,
      "window": 7745,
      "evidence": 7746,
      "Educ": 7747,
      "According": 7748,
      "seeing": 7749,
      "expensive": 7750,
      "Sen": 7751,
      "strength": 7752,
      "mir": 7753,
      "Mic": 7754,
      "aries": 7755,
      "vac": 7756,
      "tips": 7757,
      "title": 7758,
      "requires": 7759,
      "ivil": 7760,
      "rol": 7761,
      "AND": 7762,
      "rec": 7763,
      "fortun": 7764,
      "keeping": 7765,
      "gent": 7766,
      "wash": 7767,
      "Micro": 7768,
      "Who": 7769,
      "inch": 7770,
      "finally": 7771,
      "aughter": 7772,
      "Association": 7773,
      "gun": 7774,
      "balance": 7775,
      "estern": 7776,
      "brain": 7777,
      "produced": 7778,
      "minute": 7779,
      "kept": 7780,
      "lose": 7781,
      "sweet": 7782,
      "retail": 7783,
      "studies": 7784,
      "38": 7785,
      "esome": 7786,
      "critical": 7787,
      "announced": 7788,
      "Australia": 7789,
      "Found": 7790,
      "reports": 7791,
      "button": 7792,
      "quarter": 7793,
      "counter": 7794,
      "nur": 7795,
      "Vis": 7796,
      "ields": 7797,
      "vit": 7798,
      "ahead": 7799,
      "winter": 7800,
      "manage": 7801,
      "stead": 7802,
      "sume": 7803,
      "subs": 7804,
      "suffer": 7805,
      "omen": 7806,
      "ico": 7807,
      "Market": 7808,
      "iance": 7809,
      "anti": 7810,
      "flex": 7811,
      "Another": 7812,
      "map": 7813,
      "coffee": 7814,
      "34": 7815,
      "Top": 7816,
      "beach": 7817,
      "vill": 7818,
      "mental": 7819,
      "tree": 7820,
      "elling": 7821,
      "64": 7822,
      "update": 7823,
      "CC": 7824,
      "dollar": 7825,
      "valu": 7826,
      "saying": 7827,
      "wants": 7828,
      "Florida": 7829,
      "slight": 7830,
      "placement": 7831,
      "academ": 7832,
      "sports": 7833,
      "iber": 7834,
      "guid": 7835,
      "cancer": 7836,
      "pul": 7837,
      "ION": 7838,
      "odes": 7839,
      "poor": 7840,
      "PD": 7841,
      "Care": 7842,
      "finished": 7843,
      "unk": 7844,
      "connected": 7845,
      "uce": 7846,
      "IV": 7847,
      "Club": 7848,
      "perhaps": 7849,
      "determine": 7850,
      "expand": 7851,
      "Call": 7852,
      "efforts": 7853,
      "finding": 7854,
      "Develop": 7855,
      "cin": 7856,
      "session": 7857,
      "ultim": 7858,
      "cream": 7859,
      "changing": 7860,
      "Ann": 7861,
      "marr": 7862,
      "Arch": 7863,
      "organizations": 7864,
      "TS": 7865,
      "cit": 7866,
      "arts": 7867,
      "cord": 7868,
      "opening": 7869,
      "opin": 7870,
      "Council": 7871,
      "Office": 7872,
      "argu": 7873,
      "hundred": 7874,
      "hus": 7875,
      "followed": 7876,
      "ults": 7877,
      "Mal": 7878,
      "driving": 7879,
      "Class": 7880,
      "scale": 7881,
      "Green": 7882,
      "reviews": 7883,
      "challenges": 7884,
      "ption": 7885,
      "Washington": 7886,
      "French": 7887,
      "seven": 7888,
      "values": 7889,
      "origin": 7890,
      "IR": 7891,
      "generally": 7892,
      "billion": 7893,
      "Mid": 7894,
      "assign": 7895,
      "filled": 7896,
      "MP": 7897,
      "station": 7898,
      "Church": 7899,
      "middle": 7900,
      "sand": 7901,
      "miles": 7902,
      "Jack": 7903,
      "pal": 7904,
      "ened": 7905,
      "cold": 7906,
      "faith": 7907,
      "flav": 7908,
      "convers": 7909,
      "therefore": 7910,
      "experiences": 7911,
      "2008": 7912,
      "ocr": 7913,
      "ulty": 7914,
      "umn": 7915,
      "earlier": 7916,
      "trail": 7917,
      "testing": 7918,
      "dedicated": 7919,
      "teaching": 7920,
      "2009": 7921,
      "kers": 7922,
      "oo": 7923,
      "adding": 7924,
      "197": 7925,
      "sco": 7926,
      "passion": 7927,
      "medic": 7928,
      "Bay": 7929,
      "maz": 7930,
      "relig": 7931,
      "Em": 7932,
      "Miss": 7933,
      "Press": 7934,
      "named": 7935,
      "ta": 7936,
      "attach": 7937,
      "Met": 7938,
      "handle": 7939,
      "remove": 7940,
      "standards": 7941,
      "People": 7942,
      "prepared": 7943,
      "virt": 7944,
      "surv": 7945,
      "lap": 7946,
      "fashion": 7947,
      "ado": 7948,
      "maintenance": 7949,
      "Open": 7950,
      "moved": 7951,
      "iling": 7952,
      "Power": 7953,
      "actual": 7954,
      "statement": 7955,
      "manufactur": 7956,
      "David": 7957,
      "parties": 7958,
      "roy": 7959,
      "shared": 7960,
      "\",": 7961,
      "Dem": 7962,
      "95": 7963,
      "incred": 7964,
      "mentioned": 7965,
      "whose": 7966,
      "wire": 7967,
      "professionals": 7968,
      "wife": 7969,
      "primary": 7970,
      "Court": 7971,
      "Life": 7972,
      "nic": 7973,
      "traffic": 7974,
      "discover": 7975,
      "arrang": 7976,
      "colors": 7977,
      "spring": 7978,
      "west": 7979,
      "prepar": 7980,
      "chain": 7981,
      "archite": 7982,
      "Bal": 7983,
      "EC": 7984,
      "inspir": 7985,
      "format": 7986,
      "population": 7987,
      "General": 7988,
      "camera": 7989,
      "roid": 7990,
      "welcome": 7991,
      "schedule": 7992,
      "temperature": 7993,
      "buying": 7994,
      "Tex": 7995,
      "OF": 7996,
      "capacity": 7997,
      "cleaning": 7998,
      "haven": 7999,
      "British": 8000,
      "courses": 8001,
      "Blue": 8002,
      "William": 8003,
      "libr": 8004,
      "rap": 8005,
      "cheap": 8006,
      "himself": 8007,
      "metal": 8008,
      "gone": 8009,
      "comments": 8010,
      "sole": 8011,
      "shape": 8012,
      "relevant": 8013,
      "Whether": 8014,
      "Photo": 8015,
      "Cus": 8016,
      "visual": 8017,
      "lam": 8018,
      "president": 8019,
      "contains": 8020,
      "infr": 8021,
      "Mor": 8022,
      "Last": 8023,
      "Jer": 8024,
      "central": 8025,
      "heavy": 8026,
      "police": 8027,
      "”,": 8028,
      "developing": 8029,
      "tend": 8030,
      "Year": 8031,
      "esty": 8032,
      "Monday": 8033,
      "advanced": 8034,
      "exclus": 8035,
      "classes": 8036,
      "spl": 8037,
      "lets": 8038,
      "Take": 8039,
      "dete": 8040,
      "parent": 8041,
      "iny": 8042,
      "communities": 8043,
      "names": 8044,
      "poses": 8045,
      "elements": 8046,
      "iency": 8047,
      "Sing": 8048,
      "lov": 8049,
      "trial": 8050,
      "shoot": 8051,
      "eds": 8052,
      "dump": 8053,
      "peace": 8054,
      "fund": 8055,
      "usion": 8056,
      "learned": 8057,
      "modif": 8058,
      "funds": 8059,
      "cycle": 8060,
      "Love": 8061,
      "pray": 8062,
      "entertain": 8063,
      "forget": 8064,
      "colour": 8065,
      "voice": 8066,
      "Hy": 8067,
      "steel": 8068,
      "limit": 8069,
      "competition": 8070,
      "wild": 8071,
      "Amaz": 8072,
      "EM": 8073,
      "ona": 8074,
      "lean": 8075,
      "apt": 8076,
      "shopping": 8077,
      "nd": 8078,
      "ault": 8079,
      "sea": 8080,
      "links": 8081,
      "SP": 8082,
      "talking": 8083,
      "bes": 8084,
      "properties": 8085,
      "motor": 8086,
      "closed": 8087,
      "reh": 8088,
      "diet": 8089,
      "conference": 8090,
      "figure": 8091,
      "rupt": 8092,
      "Paul": 8093,
      "Ty": 8094,
      "rom": 8095,
      "factors": 8096,
      "pa": 8097,
      "ov": 8098,
      "jobs": 8099,
      "300": 8100,
      "facilities": 8101,
      "Vol": 8102,
      "dire": 8103,
      "fest": 8104,
      "luck": 8105,
      "Where": 8106,
      "Social": 8107,
      "Bre": 8108,
      "driver": 8109,
      "Set": 8110,
      "presented": 8111,
      "famous": 8112,
      "attend": 8113,
      "passed": 8114,
      "dro": 8115,
      "clud": 8116,
      "exercise": 8117,
      "anger": 8118,
      "generation": 8119,
      "Thurs": 8120,
      "smooth": 8121,
      "enses": 8122,
      "Institute": 8123,
      "older": 8124,
      "package": 8125,
      "reference": 8126,
      "catch": 8127,
      "ograph": 8128,
      "iverse": 8129,
      "burn": 8130,
      "Profess": 8131,
      "waste": 8132,
      "trou": 8133,
      "compreh": 8134,
      "Management": 8135,
      "volunte": 8136,
      "Master": 8137,
      "info": 8138,
      "workers": 8139,
      "selected": 8140,
      "theme": 8141,
      "audience": 8142,
      "aled": 8143,
      "polit": 8144,
      "Plan": 8145,
      "gather": 8146,
      "accom": 8147,
      "winning": 8148,
      "ibe": 8149,
      "memory": 8150,
      "husband": 8151,
      "Water": 8152,
      "serving": 8153,
      "Under": 8154,
      "pleas": 8155,
      "da": 8156,
      "agreement": 8157,
      "Chin": 8158,
      "Ter": 8159,
      "evening": 8160,
      "director": 8161,
      "focused": 8162,
      "operating": 8163,
      "painting": 8164,
      "mist": 8165,
      "yard": 8166,
      "ordin": 8167,
      "helpful": 8168,
      "hur": 8169,
      "Mary": 8170,
      "iger": 8171,
      "boy": 8172,
      "USA": 8173,
      "scen": 8174,
      "oma": 8175,
      "Engine": 8176,
      "smaller": 8177,
      "config": 8178,
      "Mill": 8179,
      "interview": 8180,
      "couldn": 8181,
      "attempt": 8182,
      "mountain": 8183,
      "estim": 8184,
      "organis": 8185,
      "beauty": 8186,
      "continued": 8187,
      "veget": 8188,
      "Star": 8189,
      "Like": 8190,
      "practices": 8191,
      "itors": 8192,
      "designs": 8193,
      "visitors": 8194,
      "zy": 8195,
      "spread": 8196,
      "LA": 8197,
      "gam": 8198,
      "NA": 8199,
      "Christian": 8200,
      "thes": 8201,
      "ara": 8202,
      "plenty": 8203,
      "ingred": 8204,
      "apter": 8205,
      "HD": 8206,
      "Sil": 8207,
      "emerg": 8208,
      "bright": 8209,
      "square": 8210,
      "fees": 8211,
      "rote": 8212,
      "remind": 8213,
      "installation": 8214,
      "Rel": 8215,
      "ga": 8216,
      "MO": 8217,
      "medium": 8218,
      "techniques": 8219,
      "situ": 8220,
      "sector": 8221,
      "advance": 8222,
      "BC": 8223,
      "ute": 8224,
      "guests": 8225,
      "Elect": 8226,
      "teen": 8227,
      "gall": 8228,
      "lighting": 8229,
      ".)": 8230,
      "IA": 8231,
      "Trump": 8232,
      "Work": 8233,
      "chemical": 8234,
      "truth": 8235,
      "eth": 8236,
      "earning": 8237,
      "James": 8238,
      "proof": 8239,
      "Mer": 8240,
      "Two": 8241,
      "otherwise": 8242,
      "prec": 8243,
      "coverage": 8244,
      "status": 8245,
      "approxim": 8246,
      "claims": 8247,
      "videos": 8248,
      "crow": 8249,
      "DA": 8250,
      "sources": 8251,
      "nel": 8252,
      "leader": 8253,
      "numerous": 8254,
      "fans": 8255,
      "shops": 8256,
      "Big": 8257,
      "polic": 8258,
      "Lab": 8259,
      "doctor": 8260,
      "Thursday": 8261,
      "66": 8262,
      "dur": 8263,
      "hase": 8264,
      "ampion": 8265,
      "decide": 8266,
      "sus": 8267,
      "):": 8268,
      "ba": 8269,
      "residents": 8270,
      "usual": 8271,
      "proud": 8272,
      "kill": 8273,
      "repe": 8274,
      "Texas": 8275,
      "decisions": 8276,
      "street": 8277,
      "Rock": 8278,
      "separate": 8279,
      "sey": 8280,
      "initi": 8281,
      "Dan": 8282,
      "ctors": 8283,
      "HO": 8284,
      "died": 8285,
      "diagno": 8286,
      "ancy": 8287,
      "investig": 8288,
      "rical": 8289,
      "operations": 8290,
      "Cho": 8291,
      "Show": 8292,
      "biggest": 8293,
      "Que": 8294,
      "calls": 8295,
      "maximum": 8296,
      "apers": 8297,
      "valid": 8298,
      "described": 8299,
      "cipe": 8300,
      "documents": 8301,
      "eight": 8302,
      "presents": 8303,
      "2007": 8304,
      "!!!": 8305,
      "47": 8306,
      "Both": 8307,
      "advent": 8308,
      "fem": 8309,
      "rac": 8310,
      "movement": 8311,
      "direction": 8312,
      "classic": 8313,
      "Tues": 8314,
      "cells": 8315,
      "Ag": 8316,
      "rael": 8317,
      "wrote": 8318,
      "concent": 8319,
      "waiting": 8320,
      "compar": 8321,
      "rare": 8322,
      "reality": 8323,
      "ander": 8324,
      "obvious": 8325,
      "Its": 8326,
      "mes": 8327,
      "vin": 8328,
      "Fo": 8329,
      "military": 8330,
      "explore": 8331,
      "weak": 8332,
      "installed": 8333,
      "entr": 8334,
      "construct": 8335,
      "Chinese": 8336,
      "Sum": 8337,
      "Word": 8338,
      "taste": 8339,
      "ying": 8340,
      "economy": 8341,
      "album": 8342,
      "gery": 8343,
      "ships": 8344,
      "hael": 8345,
      "itude": 8346,
      "opened": 8347,
      "flat": 8348,
      "anned": 8349,
      "Education": 8350,
      "ye": 8351,
      "assem": 8352,
      "asy": 8353,
      "Tur": 8354,
      "lux": 8355,
      "pow": 8356,
      "fing": 8357,
      "websites": 8358,
      "markets": 8359,
      "combination": 8360,
      "Data": 8361,
      "diam": 8362,
      "records": 8363,
      "spending": 8364,
      "characters": 8365,
      "applied": 8366,
      "desk": 8367,
      "performed": 8368,
      "Child": 8369,
      "beat": 8370,
      "Director": 8371,
      "rating": 8372,
      "becomes": 8373,
      "Israel": 8374,
      "die": 8375,
      "iest": 8376,
      "colate": 8377,
      "daughter": 8378,
      "essay": 8379,
      "Apple": 8380,
      "domain": 8381,
      "Rich": 8382,
      "Pay": 8383,
      "foreign": 8384,
      "shap": 8385,
      "earth": 8386,
      "bing": 8387,
      "illustr": 8388,
      "teacher": 8389,
      "TR": 8390,
      "eating": 8391,
      "pump": 8392,
      "posit": 8393,
      "termin": 8394,
      "caused": 8395,
      "alternative": 8396,
      "bought": 8397,
      "sounds": 8398,
      "Bill": 8399,
      "orial": 8400,
      "independent": 8401,
      "sym": 8402,
      "symp": 8403,
      "Glo": 8404,
      "ounds": 8405,
      "policies": 8406,
      "tot": 8407,
      "icon": 8408,
      "whatever": 8409,
      "audio": 8410,
      "error": 8411,
      "Av": 8412,
      "snow": 8413,
      "society": 8414,
      "CP": 8415,
      "ups": 8416,
      "News": 8417,
      "Fol": 8418,
      "restaurant": 8419,
      "Fam": 8420,
      "Science": 8421,
      "datab": 8422,
      "bour": 8423,
      "pon": 8424,
      "provider": 8425,
      "Pan": 8426,
      "dut": 8427,
      "dinner": 8428,
      "warr": 8429,
      "Fun": 8430,
      "Keep": 8431,
      "Mart": 8432,
      "lation": 8433,
      "becoming": 8434,
      "nutr": 8435,
      "ME": 8436,
      "processing": 8437,
      "happens": 8438,
      "anging": 8439,
      "Lu": 8440,
      "portion": 8441,
      "excited": 8442,
      "panel": 8443,
      "yes": 8444,
      "Road": 8445,
      "bathroom": 8446,
      "ented": 8447,
      "distance": 8448,
      "fabric": 8449,
      "minimum": 8450,
      "majority": 8451,
      "burg": 8452,
      "Ham": 8453,
      "properly": 8454,
      "paint": 8455,
      "Gen": 8456,
      "sumer": 8457,
      "grant": 8458,
      "bedroom": 8459,
      "amin": 8460,
      "plug": 8461,
      "Soci": 8462,
      "Wr": 8463,
      "itar": 8464,
      "2000": 8465,
      "bridge": 8466,
      "rot": 8467,
      "processes": 8468,
      "teachers": 8469,
      "ipes": 8470,
      "Next": 8471,
      "gment": 8472,
      "topic": 8473,
      "belie": 8474,
      "posts": 8475,
      "istration": 8476,
      "Lake": 8477,
      "Main": 8478,
      "Commission": 8479,
      "manager": 8480,
      "creation": 8481,
      "establish": 8482,
      "toward": 8483,
      "River": 8484,
      "UT": 8485,
      "Ver": 8486,
      "49": 8487,
      "outdoor": 8488,
      "showing": 8489,
      "Security": 8490,
      "thousands": 8491,
      "LL": 8492,
      "Time": 8493,
      "meant": 8494,
      "ky": 8495,
      "lad": 8496,
      "thers": 8497,
      "Their": 8498,
      "artist": 8499,
      "continues": 8500,
      "Fore": 8501,
      "noon": 8502,
      "quot": 8503,
      "happened": 8504,
      "Back": 8505,
      "ride": 8506,
      "willing": 8507,
      "Phone": 8508,
      "cep": 8509,
      "68": 8510,
      "novel": 8511,
      "assistance": 8512,
      "vior": 8513,
      "Before": 8514,
      "laws": 8515,
      "airs": 8516,
      "suitable": 8517,
      "SO": 8518,
      "institut": 8519,
      "dynam": 8520,
      "ams": 8521,
      "managed": 8522,
      "Tuesday": 8523,
      "Camp": 8524,
      "remains": 8525,
      "federal": 8526,
      "corner": 8527,
      "prise": 8528,
      "YO": 8529,
      "quant": 8530,
      "recipe": 8531,
      "egg": 8532,
      "agency": 8533,
      "typically": 8534,
      "mortgage": 8535,
      "practical": 8536,
      "Wood": 8537,
      "hun": 8538,
      "affordable": 8539,
      "worry": 8540,
      "starts": 8541,
      "IF": 8542,
      "cultural": 8543,
      "neighbor": 8544,
      "ano": 8545,
      "Download": 8546,
      "ya": 8547,
      "Rom": 8548,
      "BA": 8549,
      "allowing": 8550,
      "Special": 8551,
      "Pet": 8552,
      "south": 8553,
      "ils": 8554,
      "umin": 8555,
      "injury": 8556,
      "exciting": 8557,
      "leaves": 8558,
      "psych": 8559,
      "kid": 8560,
      "unless": 8561,
      "presence": 8562,
      "Bet": 8563,
      "uled": 8564,
      "icken": 8565,
      "department": 8566,
      "crit": 8567,
      "agon": 8568,
      "senior": 8569,
      "fear": 8570,
      "Bur": 8571,
      "Sof": 8572,
      "Tom": 8573,
      "satisf": 8574,
      "Hall": 8575,
      "units": 8576,
      "rise": 8577,
      "score": 8578,
      "species": 8579,
      "detailed": 8580,
      "recommended": 8581,
      "400": 8582,
      "graduate": 8583,
      "anta": 8584,
      "apped": 8585,
      "animals": 8586,
      "Tor": 8587,
      "gins": 8588,
      "fold": 8589,
      "deed": 8590,
      "fantastic": 8591,
      "battery": 8592,
      "Note": 8593,
      "SC": 8594,
      "Online": 8595,
      "awesome": 8596,
      "Lord": 8597,
      "ugh": 8598,
      "....": 8599,
      "doub": 8600,
      "throw": 8601,
      "manner": 8602,
      "sha": 8603,
      "inspired": 8604,
      "inform": 8605,
      "leadership": 8606,
      "instru": 8607,
      "cris": 8608,
      "Africa": 8609,
      "67": 8610,
      "updated": 8611,
      "artists": 8612,
      "volume": 8613,
      "Light": 8614,
      "cabin": 8615,
      "complain": 8616,
      "leaving": 8617,
      "locations": 8618,
      "holds": 8619,
      "kick": 8620,
      "feat": 8621,
      "articles": 8622,
      "registered": 8623,
      "ari": 8624,
      "seat": 8625,
      "cean": 8626,
      "shipping": 8627,
      "Wednes": 8628,
      "avel": 8629,
      "enjoyed": 8630,
      "contr": 8631,
      "Hum": 8632,
      "yer": 8633,
      "ula": 8634,
      "guess": 8635,
      "environmental": 8636,
      "Ve": 8637,
      "bell": 8638,
      "approximately": 8639,
      "centre": 8640,
      "Build": 8641,
      "brings": 8642,
      "fruit": 8643,
      "academic": 8644,
      "Michael": 8645,
      "components": 8646,
      "Public": 8647,
      "lor": 8648,
      "lunch": 8649,
      "fuel": 8650,
      "wheel": 8651,
      "runs": 8652,
      "Card": 8653,
      "cket": 8654,
      "wouldn": 8655,
      "vention": 8656,
      "Project": 8657,
      "stores": 8658,
      "phones": 8659,
      "Island": 8660,
      "slightly": 8661,
      "SA": 8662,
      "layer": 8663,
      "Hist": 8664,
      "fly": 8665,
      "ito": 8666,
      "vic": 8667,
      "jump": 8668,
      "England": 8669,
      "strategies": 8670,
      "demonstr": 8671,
      "Wall": 8672,
      "reliable": 8673,
      "Fire": 8674,
      "climate": 8675,
      "category": 8676,
      "perspect": 8677,
      "appears": 8678,
      "absolutely": 8679,
      "familiar": 8680,
      "concerns": 8681,
      "tech": 8682,
      "plastic": 8683,
      "covers": 8684,
      "casino": 8685,
      "ML": 8686,
      "approved": 8687,
      "secret": 8688,
      "Through": 8689,
      "bly": 8690,
      "distr": 8691,
      "Foundation": 8692,
      "clearly": 8693,
      "ifts": 8694,
      "Angel": 8695,
      "Information": 8696,
      "Product": 8697,
      "faces": 8698,
      "hospital": 8699,
      "Real": 8700,
      "houses": 8701,
      "relationships": 8702,
      "800": 8703,
      "tro": 8704,
      "Bas": 8705,
      "nav": 8706,
      "facility": 8707,
      "menu": 8708,
      "housing": 8709,
      "unning": 8710,
      "illa": 8711,
      "profile": 8712,
      "dim": 8713,
      "ament": 8714,
      "cities": 8715,
      "Republic": 8716,
      "TE": 8717,
      "importance": 8718,
      "fields": 8719,
      "Mil": 8720,
      "itution": 8721,
      "DO": 8722,
      "bac": 8723,
      "icians": 8724,
      "showed": 8725,
      "thoughts": 8726,
      "improv": 8727,
      "specifically": 8728,
      "citiz": 8729,
      "dial": 8730,
      "Contact": 8731,
      "Gar": 8732,
      "previously": 8733,
      "automatically": 8734,
      "sport": 8735,
      "walking": 8736,
      "vehicles": 8737,
      "watching": 8738,
      "industrial": 8739,
      "input": 8740,
      "tests": 8741,
      "NY": 8742,
      "busy": 8743,
      "sky": 8744,
      "trees": 8745,
      "fortunately": 8746,
      "rub": 8747,
      "Enter": 8748,
      "Mel": 8749,
      "outhern": 8750,
      "output": 8751,
      "acks": 8752,
      "enhance": 8753,
      "Er": 8754,
      "expertise": 8755,
      "FL": 8756,
      "Cert": 8757,
      "discussion": 8758,
      "submit": 8759,
      "motiv": 8760,
      "Thom": 8761,
      "writer": 8762,
      "flowers": 8763,
      "thick": 8764,
      "69": 8765,
      "tructure": 8766,
      "NE": 8767,
      "ws": 8768,
      "estic": 8769,
      "knows": 8770,
      "depending": 8771,
      "Def": 8772,
      "dining": 8773,
      "issued": 8774,
      "Community": 8775,
      "goods": 8776,
      "internal": 8777,
      "gal": 8778,
      "inct": 8779,
      "clos": 8780,
      "Roy": 8781,
      "rule": 8782,
      "leads": 8783,
      "favour": 8784,
      "German": 8785,
      "bike": 8786,
      "capt": 8787,
      "civil": 8788,
      "responsibility": 8789,
      "vary": 8790,
      "Amazon": 8791,
      "Wednesday": 8792,
      "mostly": 8793,
      "verse": 8794,
      "journal": 8795,
      "itness": 8796,
      "windows": 8797,
      "predict": 8798,
      "trig": 8799,
      "Jour": 8800,
      "agent": 8801,
      "Those": 8802,
      "mg": 8803,
      "Beach": 8804,
      "Mot": 8805,
      "ls": 8806,
      "42": 8807,
      "Cam": 8808,
      "erve": 8809,
      "listen": 8810,
      "Mad": 8811,
      "decre": 8812,
      "sample": 8813,
      "77": 8814,
      "yn": 8815,
      "Only": 8816,
      "TA": 8817,
      "radio": 8818,
      "sugar": 8819,
      "promote": 8820,
      "Development": 8821,
      "ipp": 8822,
      "lovely": 8823,
      "Start": 8824,
      "confident": 8825,
      "technologies": 8826,
      "debt": 8827,
      "SU": 8828,
      "olar": 8829,
      "occup": 8830,
      "negative": 8831,
      "aint": 8832,
      "calcul": 8833,
      "north": 8834,
      "PR": 8835,
      "notes": 8836,
      "feedback": 8837,
      "Lin": 8838,
      "List": 8839,
      "schem": 8840,
      "Central": 8841,
      "reached": 8842,
      "Society": 8843,
      "mouth": 8844,
      "exchange": 8845,
      "delicious": 8846,
      "solar": 8847,
      "combined": 8848,
      "uries": 8849,
      "ody": 8850,
      "holding": 8851,
      "infl": 8852,
      "ancing": 8853,
      "Grand": 8854,
      "GO": 8855,
      "reme": 8856,
      "boat": 8857,
      "Microsoft": 8858,
      "oph": 8859,
      "sheet": 8860,
      "disci": 8861,
      "putting": 8862,
      "tun": 8863,
      "toms": 8864,
      "Vir": 8865,
      "innovative": 8866,
      "behavior": 8867,
      "accident": 8868,
      "encourage": 8869,
      "Food": 8870,
      "asp": 8871,
      "resol": 8872,
      "functions": 8873,
      "curren": 8874,
      "funding": 8875,
      "hes": 8876,
      "acts": 8877,
      "Music": 8878,
      "Ev": 8879,
      "iled": 8880,
      "accompl": 8881,
      "ulations": 8882,
      "choices": 8883,
      "Mex": 8884,
      "ror": 8885,
      "joined": 8886,
      "ka": 8887,
      "Commit": 8888,
      "ingredients": 8889,
      "depth": 8890,
      "confidence": 8891,
      "partnership": 8892,
      "emergency": 8893,
      "2006": 8894,
      "eless": 8895,
      "interior": 8896,
      "aspects": 8897,
      "flight": 8898,
      "kit": 8899,
      "Lat": 8900,
      "85": 8901,
      "Valley": 8902,
      "ception": 8903,
      "attor": 8904,
      "Wel": 8905,
      "Government": 8906,
      "enable": 8907,
      "cloud": 8908,
      "premium": 8909,
      "instance": 8910,
      "pull": 8911,
      "buildings": 8912,
      "asking": 8913,
      "ota": 8914,
      "meal": 8915,
      "bled": 8916,
      "Lead": 8917,
      "Los": 8918,
      "brands": 8919,
      "oral": 8920,
      "brief": 8921,
      "CR": 8922,
      "proceed": 8923,
      "tight": 8924,
      "Germany": 8925,
      "Van": 8926,
      "Tal": 8927,
      "fle": 8928,
      "ourselves": 8929,
      "purposes": 8930,
      "employment": 8931,
      "bles": 8932,
      "Team": 8933,
      "Dep": 8934,
      "sures": 8935,
      "Distr": 8936,
      "chocolate": 8937,
      "Color": 8938,
      "restrict": 8939,
      "ech": 8940,
      "anywhere": 8941,
      "mel": 8942,
      "utter": 8943,
      "defined": 8944,
      "BM": 8945,
      "tons": 8946,
      "bling": 8947,
      "Ul": 8948,
      "Does": 8949,
      "Mich": 8950,
      "edom": 8951,
      "therapy": 8952,
      "apos": 8953,
      "ails": 8954,
      "despite": 8955,
      "hire": 8956,
      "football": 8957,
      "parking": 8958,
      "pin": 8959,
      "guys": 8960,
      "tough": 8961,
      "surgery": 8962,
      "phil": 8963,
      "Technology": 8964,
      "usher": 8965,
      "marks": 8966,
      "possibly": 8967,
      "Mach": 8968,
      "liqu": 8969,
      "delivered": 8970,
      "comprehensive": 8971,
      "Fre": 8972,
      "Long": 8973,
      "EU": 8974,
      "Fort": 8975,
      "vict": 8976,
      "dent": 8977,
      "conds": 8978,
      "shower": 8979,
      "aft": 8980,
      "raised": 8981,
      "patch": 8982,
      "Mass": 8983,
      "aser": 8984,
      "Alex": 8985,
      "Lou": 8986,
      "Medic": 8987,
      "azine": 8988,
      "Plus": 8989,
      "tickets": 8990,
      "circum": 8991,
      "ros": 8992,
      "procedure": 8993,
      "guarantee": 8994,
      "scene": 8995,
      "library": 8996,
      "totally": 8997,
      "obl": 8998,
      "saving": 8999,
      "plates": 9000,
      "opinion": 9001,
      "Mat": 9002,
      "supported": 9003,
      "ae": 9004,
      "itz": 9005,
      "150": 9006,
      "acid": 9007,
      "protein": 9008,
      "Fil": 9009,
      "providers": 9010,
      "reput": 9011,
      "positions": 9012,
      "boost": 9013,
      "cake": 9014,
      "ipping": 9015,
      "igence": 9016,
      "elines": 9017,
      "arms": 9018,
      "committed": 9019,
      "organic": 9020,
      "sight": 9021,
      "td": 9022,
      "deals": 9023,
      "extract": 9024,
      "tox": 9025,
      "ipal": 9026,
      "animal": 9027,
      "mand": 9028,
      "educational": 9029,
      "Academ": 9030,
      "university": 9031,
      "survey": 9032,
      "cutting": 9033,
      "lived": 9034,
      "vote": 9035,
      "France": 9036,
      "appointment": 9037,
      "Di": 9038,
      "ternal": 9039,
      "astructure": 9040,
      "extensive": 9041,
      "removed": 9042,
      "encing": 9043,
      "jack": 9044,
      "ern": 9045,
      "oga": 9046,
      "visiting": 9047,
      "rental": 9048,
      "Using": 9049,
      "Party": 9050,
      "accurate": 9051,
      "resource": 9052,
      "Medical": 9053,
      "Ca": 9054,
      "sphere": 9055,
      "possess": 9056,
      "measures": 9057,
      "database": 9058,
      "ficient": 9059,
      "valuable": 9060,
      "ilit": 9061,
      "emer": 9062,
      "George": 9063,
      "accounts": 9064,
      "competitive": 9065,
      "Centre": 9066,
      "arrow": 9067,
      "Stand": 9068,
      "returned": 9069,
      "rapid": 9070,
      "zen": 9071,
      "butter": 9072,
      "District": 9073,
      "ission": 9074,
      "legis": 9075,
      "46": 9076,
      "Lev": 9077,
      "aught": 9078,
      "chat": 9079,
      "calling": 9080,
      "manual": 9081,
      "GB": 9082,
      "stal": 9083,
      "introduced": 9084,
      "advertising": 9085,
      "cohol": 9086,
      "Lim": 9087,
      "adults": 9088,
      "pursu": 9089,
      "administration": 9090,
      "tast": 9091,
      "strugg": 9092,
      "discovered": 9093,
      "wealth": 9094,
      "employee": 9095,
      "Nat": 9096,
      "Cas": 9097,
      "expl": 9098,
      "eventually": 9099,
      "ifying": 9100,
      "participants": 9101,
      "Search": 9102,
      "ais": 9103,
      "charges": 9104,
      "harm": 9105,
      "raise": 9106,
      "missing": 9107,
      "sor": 9108,
      "sides": 9109,
      "discount": 9110,
      "Gal": 9111,
      "faster": 9112,
      "apps": 9113,
      "factor": 9114,
      "Twitter": 9115,
      "Mob": 9116,
      "Test": 9117,
      "Dig": 9118,
      "cular": 9119,
      "resolution": 9120,
      "strain": 9121,
      "filter": 9122,
      "convenient": 9123,
      "View": 9124,
      "vas": 9125,
      "gro": 9126,
      "complic": 9127,
      "Auto": 9128,
      "songs": 9129,
      "seconds": 9130,
      "updates": 9131,
      "wis": 9132,
      "charged": 9133,
      "ette": 9134,
      "2005": 9135,
      "Hill": 9136,
      "Ir": 9137,
      "Chris": 9138,
      "ipe": 9139,
      "appearance": 9140,
      "mode": 9141,
      "dogs": 9142,
      "dance": 9143,
      "crete": 9144,
      "Shop": 9145,
      "phen": 9146,
      "domin": 9147,
      "Museum": 9148,
      "Train": 9149,
      "purchased": 9150,
      "princ": 9151,
      "sizes": 9152,
      "thread": 9153,
      "Chic": 9154,
      "Canad": 9155,
      "certific": 9156,
      "thetic": 9157,
      "honest": 9158,
      "influence": 9159,
      "01": 9160,
      "youth": 9161,
      "seek": 9162,
      "paying": 9163,
      "Emp": 9164,
      "Rad": 9165,
      "Old": 9166,
      "element": 9167,
      "CB": 9168,
      "improved": 9169,
      "restaurants": 9170,
      "monthly": 9171,
      "Organ": 9172,
      "seas": 9173,
      "Review": 9174,
      "grown": 9175,
      "licens": 9176,
      "43": 9177,
      "CT": 9178,
      "Cong": 9179,
      "elimin": 9180,
      "Android": 9181,
      "effectively": 9182,
      "Person": 9183,
      "replace": 9184,
      "coast": 9185,
      "Sha": 9186,
      "Rob": 9187,
      "rd": 9188,
      "outs": 9189,
      "estyle": 9190,
      "ien": 9191,
      "Tem": 9192,
      "cable": 9193,
      "yout": 9194,
      "HP": 9195,
      "signed": 9196,
      "aters": 9197,
      "iters": 9198,
      "apping": 9199,
      "settings": 9200,
      "salt": 9201,
      "wo": 9202,
      "Div": 9203,
      "Hi": 9204,
      "bringing": 9205,
      "messages": 9206,
      "significantly": 9207,
      "efficiency": 9208,
      "ald": 9209,
      "ulture": 9210,
      "Follow": 9211,
      "warrant": 9212,
      "wing": 9213,
      "Det": 9214,
      "interests": 9215,
      "Table": 9216,
      "confl": 9217,
      "bug": 9218,
      "inations": 9219,
      "payments": 9220,
      "jun": 9221,
      "command": 9222,
      "cooking": 9223,
      "appreciate": 9224,
      "consumer": 9225,
      "facing": 9226,
      "occasion": 9227,
      "afternoon": 9228,
      "Cre": 9229,
      "dang": 9230,
      "intended": 9231,
      "truck": 9232,
      "clinical": 9233,
      "53": 9234,
      "poly": 9235,
      "ician": 9236,
      "ski": 9237,
      "trading": 9238,
      "Japanese": 9239,
      "channel": 9240,
      "rat": 9241,
      "norm": 9242,
      "bread": 9243,
      "iron": 9244,
      "determined": 9245,
      "retch": 9246,
      "chosen": 9247,
      "appeared": 9248,
      "Maybe": 9249,
      "ENT": 9250,
      "etic": 9251,
      "Hand": 9252,
      "consumers": 9253,
      "brush": 9254,
      "trained": 9255,
      "fixed": 9256,
      "**": 9257,
      "rum": 9258,
      "atmo": 9259,
      "DC": 9260,
      "intell": 9261,
      "seeking": 9262,
      "Therefore": 9263,
      "styles": 9264,
      "reduced": 9265,
      "Bra": 9266,
      "ulate": 9267,
      "osing": 9268,
      "Cons": 9269,
      "Pres": 9270,
      "iso": 9271,
      "upload": 9272,
      "Bi": 9273,
      "wers": 9274,
      "drivers": 9275,
      "Access": 9276,
      "Fig": 9277,
      "readers": 9278,
      "feels": 9279,
      "Committee": 9280,
      "HT": 9281,
      "context": 9282,
      "examples": 9283,
      "Atl": 9284,
      "carbon": 9285,
      "sitting": 9286,
      "Family": 9287,
      "propos": 9288,
      "Western": 9289,
      "replacement": 9290,
      "sert": 9291,
      "procedures": 9292,
      "Wil": 9293,
      "lie": 9294,
      "urban": 9295,
      "crim": 9296,
      "breakfast": 9297,
      "license": 9298,
      "doubt": 9299,
      "3D": 9300,
      "itionally": 9301,
      "Sc": 9302,
      "symbol": 9303,
      "tub": 9304,
      "andom": 9305,
      "regularly": 9306,
      "clim": 9307,
      "reasonable": 9308,
      "Further": 9309,
      "announce": 9310,
      "stated": 9311,
      "treated": 9312,
      "inding": 9313,
      "presentation": 9314,
      "04": 9315,
      "san": 9316,
      "Invest": 9317,
      "cient": 9318,
      "ru": 9319,
      "supplies": 9320,
      "forced": 9321,
      "signal": 9322,
      "tooth": 9323,
      "electronic": 9324,
      "affected": 9325,
      "umber": 9326,
      "desire": 9327,
      "guy": 9328,
      "holders": 9329,
      "mic": 9330,
      "missed": 9331,
      "commitment": 9332,
      "nom": 9333,
      "alle": 9334,
      "identified": 9335,
      "Sand": 9336,
      "barr": 9337,
      "susp": 9338,
      "vation": 9339,
      "2004": 9340,
      "manufacturing": 9341,
      "scan": 9342,
      "era": 9343,
      "hearing": 9344,
      "Instead": 9345,
      "supporting": 9346,
      "operate": 9347,
      "iat": 9348,
      "suc": 9349,
      "guard": 9350,
      "engineering": 9351,
      "trick": 9352,
      "tea": 9353,
      "reek": 9354,
      "realize": 9355,
      "sin": 9356,
      "tables": 9357,
      "failure": 9358,
      "registration": 9359,
      "58": 9360,
      "coup": 9361,
      "glad": 9362,
      "oration": 9363,
      "brid": 9364,
      "ensions": 9365,
      "historical": 9366,
      "sac": 9367,
      "knowing": 9368,
      "joint": 9369,
      "perfectly": 9370,
      "whom": 9371,
      "41": 9372,
      "surrounding": 9373,
      "Ital": 9374,
      "vies": 9375,
      "Smith": 9376,
      "prop": 9377,
      "neck": 9378,
      "Cop": 9379,
      "Second": 9380,
      "Journal": 9381,
      "Kore": 9382,
      "tasks": 9383,
      "ii": 9384,
      "Global": 9385,
      "km": 9386,
      "forest": 9387,
      "univers": 9388,
      "grees": 9389,
      "esterday": 9390,
      "Award": 9391,
      "Sometimes": 9392,
      "island": 9393,
      "FA": 9394,
      "eper": 9395,
      "Network": 9396,
      "fell": 9397,
      "girls": 9398,
      "Fest": 9399,
      "Men": 9400,
      "rail": 9401,
      "Prote": 9402,
      "perspective": 9403,
      "revenue": 9404,
      "conver": 9405,
      "label": 9406,
      "seemed": 9407,
      "carefully": 9408,
      "cles": 9409,
      "swim": 9410,
      "py": 9411,
      "rated": 9412,
      "Ass": 9413,
      "greatest": 9414,
      "walls": 9415,
      "Cy": 9416,
      "quiet": 9417,
      "Spring": 9418,
      "infrastructure": 9419,
      "Women": 9420,
      "planned": 9421,
      "settle": 9422,
      "horse": 9423,
      "eline": 9424,
      "circumst": 9425,
      "Arts": 9426,
      "cm": 9427,
      "African": 9428,
      "Very": 9429,
      "detect": 9430,
      "1st": 9431,
      "decades": 9432,
      "accepted": 9433,
      "instructions": 9434,
      "confir": 9435,
      "prene": 9436,
      "conversation": 9437,
      "discipl": 9438,
      "pure": 9439,
      "foods": 9440,
      "recovery": 9441,
      "ibilities": 9442,
      "participate": 9443,
      "launched": 9444,
      "plays": 9445,
      "hundreds": 9446,
      "ius": 9447,
      "tank": 9448,
      "spaces": 9449,
      "kinds": 9450,
      "phase": 9451,
      "ador": 9452,
      "asket": 9453,
      "apartment": 9454,
      "250": 9455,
      "Did": 9456,
      "tes": 9457,
      "Blo": 9458,
      "distribution": 9459,
      "Carol": 9460,
      "dollars": 9461,
      "kin": 9462,
      "Vict": 9463,
      "Adv": 9464,
      "bust": 9465,
      "rics": 9466,
      "causes": 9467,
      "minor": 9468,
      "57": 9469,
      "Robert": 9470,
      "Democr": 9471,
      "aj": 9472,
      "vital": 9473,
      "holder": 9474,
      "Squ": 9475,
      "Ze": 9476,
      "consequ": 9477,
      "Union": 9478,
      "agram": 9479,
      "ipped": 9480,
      "Which": 9481,
      "route": 9482,
      "agencies": 9483,
      "mig": 9484,
      "Conne": 9485,
      "brown": 9486,
      "aker": 9487,
      "Having": 9488,
      "dating": 9489,
      "considering": 9490,
      "Hope": 9491,
      "cious": 9492,
      "Control": 9493,
      "AG": 9494,
      "Tim": 9495,
      "leather": 9496,
      "Earth": 9497,
      "Peter": 9498,
      "angle": 9499,
      "awareness": 9500,
      "Ltd": 9501,
      "uration": 9502,
      "Us": 9503,
      "mut": 9504,
      "accessible": 9505,
      "patterns": 9506,
      "degrees": 9507,
      "ALL": 9508,
      "noted": 9509,
      "Head": 9510,
      "ti": 9511,
      "proposed": 9512,
      "shares": 9513,
      "iPhone": 9514,
      "arent": 9515,
      "Chair": 9516,
      "ums": 9517,
      "compare": 9518,
      "hero": 9519,
      "Chicago": 9520,
      "Link": 9521,
      "ordinary": 9522,
      "Tour": 9523,
      "sized": 9524,
      "promise": 9525,
      "05": 9526,
      "officials": 9527,
      "meat": 9528,
      "sessions": 9529,
      "Scott": 9530,
      "Dou": 9531,
      "finance": 9532,
      "BE": 9533,
      "healthcare": 9534,
      "milk": 9535,
      "upper": 9536,
      "ava": 9537,
      "frequently": 9538,
      "gradu": 9539,
      "rig": 9540,
      "signs": 9541,
      "campus": 9542,
      "renew": 9543,
      "ita": 9544,
      "successfully": 9545,
      "integrated": 9546,
      "forces": 9547,
      "oles": 9548,
      "approv": 9549,
      "external": 9550,
      "broken": 9551,
      "teeth": 9552,
      "prospect": 9553,
      "logo": 9554,
      "accommod": 9555,
      "invent": 9556,
      "Russian": 9557,
      "qualified": 9558,
      "Australian": 9559,
      "insul": 9560,
      "boards": 9561,
      "Asia": 9562,
      "searching": 9563,
      "remaining": 9564,
      "Sa": 9565,
      "fellow": 9566,
      "none": 9567,
      "berg": 9568,
      "ensity": 9569,
      "publish": 9570,
      "married": 9571,
      "97": 9572,
      "negot": 9573,
      "certified": 9574,
      "Virgin": 9575,
      "alog": 9576,
      "assets": 9577,
      "ops": 9578,
      "posite": 9579,
      "CL": 9580,
      "skill": 9581,
      "lit": 9582,
      "fection": 9583,
      "Russia": 9584,
      "authen": 9585,
      "belong": 9586,
      "telling": 9587,
      "urally": 9588,
      "About": 9589,
      "emphas": 9590,
      "cheese": 9591,
      "Finally": 9592,
      "yellow": 9593,
      "istan": 9594,
      "Sign": 9595,
      "Den": 9596,
      "perman": 9597,
      "Conference": 9598,
      "ulated": 9599,
      "ulous": 9600,
      "ighter": 9601,
      "bigger": 9602,
      "residential": 9603,
      "substant": 9604,
      "olic": 9605,
      "browser": 9606,
      "arrived": 9607,
      "elig": 9608,
      "mini": 9609,
      "carried": 9610,
      "scientific": 9611,
      "PL": 9612,
      "twice": 9613,
      "shut": 9614,
      "incredible": 9615,
      "acle": 9616,
      "excess": 9617,
      "appointed": 9618,
      "communications": 9619,
      "CEO": 9620,
      "Pack": 9621,
      "informed": 9622,
      "Students": 9623,
      "symptoms": 9624,
      "expo": 9625,
      "Nov": 9626,
      "poll": 9627,
      "privacy": 9628,
      "claimed": 9629,
      "neighborhood": 9630,
      "DS": 9631,
      "female": 9632,
      "Lar": 9633,
      "edition": 9634,
      "serves": 9635,
      "sufficient": 9636,
      "assessment": 9637,
      "Econom": 9638,
      "equal": 9639,
      "exclusive": 9640,
      "EX": 9641,
      "Learn": 9642,
      "Max": 9643,
      "Oper": 9644,
      "fro": 9645,
      "Offic": 9646,
      "victim": 9647,
      "Week": 9648,
      "contemporary": 9649,
      "bless": 9650,
      "topics": 9651,
      "Qual": 9652,
      "begins": 9653,
      "agr": 9654,
      "hydr": 9655,
      "constantly": 9656,
      "ini": 9657,
      "depart": 9658,
      "ially": 9659,
      "innovation": 9660,
      "belief": 9661,
      "Frank": 9662,
      "Bud": 9663,
      "Span": 9664,
      "speaking": 9665,
      "vs": 9666,
      "recru": 9667,
      "pitch": 9668,
      "quar": 9669,
      "answers": 9670,
      "Win": 9671,
      "fal": 9672,
      "capable": 9673,
      "gate": 9674,
      "concerned": 9675,
      "PO": 9676,
      "MC": 9677,
      "supports": 9678,
      "cepts": 9679,
      "600": 9680,
      "RA": 9681,
      "loans": 9682,
      "hall": 9683,
      "bowl": 9684,
      "tut": 9685,
      "studio": 9686,
      "Haw": 9687,
      "receiving": 9688,
      "Manager": 9689,
      "machines": 9690,
      "taught": 9691,
      "zone": 9692,
      "’.": 9693,
      "alcohol": 9694,
      "chicken": 9695,
      "organized": 9696,
      "Aud": 9697,
      "spiritual": 9698,
      "regional": 9699,
      "Code": 9700,
      "cuit": 9701,
      "grat": 9702,
      "Paris": 9703,
      "HA": 9704,
      "papers": 9705,
      "root": 9706,
      "Town": 9707,
      "Ken": 9708,
      "iage": 9709,
      "soul": 9710,
      "fourth": 9711,
      "adult": 9712,
      "membership": 9713,
      "affil": 9714,
      "Key": 9715,
      "Try": 9716,
      "prin": 9717,
      "Americans": 9718,
      "Cat": 9719,
      "retain": 9720,
      "emotional": 9721,
      "Canadian": 9722,
      "electrical": 9723,
      "govern": 9724,
      "Applic": 9725,
      "ij": 9726,
      "idden": 9727,
      "missions": 9728,
      "hosting": 9729,
      "photography": 9730,
      "ua": 9731,
      "lifestyle": 9732,
      "Congress": 9733,
      "Libr": 9734,
      "confirm": 9735,
      "Trust": 9736,
      "nine": 9737,
      "shire": 9738,
      "Watch": 9739,
      "stars": 9740,
      "matters": 9741,
      "institutions": 9742,
      "entre": 9743,
      "asts": 9744,
      "flag": 9745,
      "Media": 9746,
      "protected": 9747,
      "anda": 9748,
      "Ther": 9749,
      "atre": 9750,
      "ticket": 9751,
      "Italian": 9752,
      "foundation": 9753,
      "FOR": 9754,
      "HS": 9755,
      "azy": 9756,
      "NOT": 9757,
      "battle": 9758,
      "relatively": 9759,
      "improvement": 9760,
      ");": 9761,
      "DE": 9762,
      "stretch": 9763,
      "description": 9764,
      "dumpster": 9765,
      "unders": 9766,
      "scheduled": 9767,
      "habit": 9768,
      "counting": 9769,
      "Dom": 9770,
      "oh": 9771,
      "agreed": 9772,
      "flash": 9773,
      "icts": 9774,
      "Pac": 9775,
      "cribe": 9776,
      "59": 9777,
      "Hor": 9778,
      "bass": 9779,
      "shoes": 9780,
      "omb": 9781,
      "aks": 9782,
      "Buy": 9783,
      "divid": 9784,
      "ounder": 9785,
      "auth": 9786,
      "Beaut": 9787,
      "keeps": 9788,
      "typical": 9789,
      "bear": 9790,
      "investors": 9791,
      "brother": 9792,
      "silver": 9793,
      "district": 9794,
      "boys": 9795,
      "pharm": 9796,
      "ries": 9797,
      "Room": 9798,
      "freedom": 9799,
      "Victor": 9800,
      "agents": 9801,
      "concern": 9802,
      "Author": 9803,
      "candidates": 9804,
      "facilit": 9805,
      "luxury": 9806,
      "56": 9807,
      "igan": 9808,
      "hardware": 9809,
      "monitoring": 9810,
      "religious": 9811,
      "ias": 9812,
      "rug": 9813,
      "technique": 9814,
      "inspiration": 9815,
      "Hosp": 9816,
      "08": 9817,
      "abled": 9818,
      "breath": 9819,
      "Clean": 9820,
      "endar": 9821,
      "App": 9822,
      "height": 9823,
      "tested": 9824,
      "printed": 9825,
      "impressive": 9826,
      "clar": 9827,
      "Hotel": 9828,
      "Human": 9829,
      "tage": 9830,
      "tics": 9831,
      "grass": 9832,
      "upcoming": 9833,
      "commission": 9834,
      "driven": 9835,
      "mining": 9836,
      "Ros": 9837,
      "random": 9838,
      "stands": 9839,
      "expectations": 9840,
      "Happ": 9841,
      "deploy": 9842,
      "situations": 9843,
      "BO": 9844,
      "pup": 9845,
      "engage": 9846,
      "virtual": 9847,
      "Pass": 9848,
      "uters": 9849,
      "isation": 9850,
      "consistent": 9851,
      "weet": 9852,
      "crew": 9853,
      "Corpor": 9854,
      "election": 9855,
      "coin": 9856,
      "conducted": 9857,
      "utions": 9858,
      "intage": 9859,
      "suring": 9860,
      "param": 9861,
      "2nd": 9862,
      "diverse": 9863,
      "ered": 9864,
      "fif": 9865,
      "stim": 9866,
      "shar": 9867,
      "letters": 9868,
      "VE": 9869,
      "iors": 9870,
      "shel": 9871,
      "Ep": 9872,
      "visible": 9873,
      "Enjoy": 9874,
      "stopped": 9875,
      "defense": 9876,
      "Way": 9877,
      "incorpor": 9878,
      "executive": 9879,
      "Ok": 9880,
      "dates": 9881,
      "revol": 9882,
      "aming": 9883,
      "ella": 9884,
      "minister": 9885,
      "challenging": 9886,
      "Bed": 9887,
      "alleg": 9888,
      "stre": 9889,
      "identity": 9890,
      "NC": 9891,
      "til": 9892,
      "sauce": 9893,
      "bags": 9894,
      "performing": 9895,
      "featured": 9896,
      "Ener": 9897,
      "everyday": 9898,
      "recognized": 9899,
      "Brown": 9900,
      "editor": 9901,
      "noticed": 9902,
      "thorough": 9903,
      "eries": 9904,
      "distinct": 9905,
      "ught": 9906,
      "ache": 9907,
      "Op": 9908,
      "theory": 9909,
      "closer": 9910,
      "54": 9911,
      "Full": 9912,
      "Ill": 9913,
      "outstanding": 9914,
      "quir": 9915,
      "Series": 9916,
      "river": 9917,
      "tel": 9918,
      "Franc": 9919,
      "vend": 9920,
      "pep": 9921,
      "recorded": 9922,
      "Loc": 9923,
      "Looking": 9924,
      "flexible": 9925,
      "Land": 9926,
      "stro": 9927,
      "coordin": 9928,
      "supposed": 9929,
      "delight": 9930,
      "retire": 9931,
      "Jud": 9932,
      "personally": 9933,
      "PDF": 9934,
      "circumstances": 9935,
      "deck": 9936,
      "savings": 9937,
      "philos": 9938,
      "anx": 9939,
      "engagement": 9940,
      "remote": 9941,
      "banks": 9942,
      "LED": 9943,
      "Mike": 9944,
      "Prov": 9945,
      "massive": 9946,
      "drugs": 9947,
      "DI": 9948,
      "rear": 9949,
      "ember": 9950,
      "failed": 9951,
      "extended": 9952,
      "attribut": 9953,
      "mainly": 9954,
      "quote": 9955,
      "worldwide": 9956,
      "vacation": 9957,
      "involve": 9958,
      "secut": 9959,
      "satisfact": 9960,
      "absor": 9961,
      "trouble": 9962,
      "chief": 9963,
      "proto": 9964,
      "earned": 9965,
      "picked": 9966,
      "pill": 9967,
      "controlled": 9968,
      "adopt": 9969,
      "caught": 9970,
      "choosing": 9971,
      "Cook": 9972,
      "Garden": 9973,
      "sex": 9974,
      "bonus": 9975,
      "village": 9976,
      "Ide": 9977,
      "inches": 9978,
      "ola": 9979,
      "happening": 9980,
      "Gall": 9981,
      "witness": 9982,
      "berry": 9983,
      "landscape": 9984,
      "Stat": 9985,
      "compat": 9986,
      "Equ": 9987,
      "Priv": 9988,
      "movies": 9989,
      "makers": 9990,
      "moments": 9991,
      "Dec": 9992,
      "winner": 9993,
      "Bir": 9994,
      "fitness": 9995,
      "cure": 9996,
      "programme": 9997,
      "interface": 9998,
      "researchers": 9999,
      "Him": 10000,
      "vast": 10001,
      "removal": 10002,
      "imagine": 10003,
      "manufacturer": 10004,
      "sister": 10005,
      "orrow": 10006,
      "index": 10007,
      "contest": 10008,
      "regulations": 10009,
      "BS": 10010,
      "Cath": 10011,
      "Kar": 10012,
      "template": 10013,
      "onom": 10014,
      "alter": 10015,
      "encoun": 10016,
      "risks": 10017,
      "Clo": 10018,
      "greg": 10019,
      "meetings": 10020,
      "obtained": 10021,
      "closely": 10022,
      "Ha": 10023,
      "nearby": 10024,
      "02": 10025,
      "ilst": 10026,
      "soil": 10027,
      "pil": 10028,
      "vul": 10029,
      "architect": 10030,
      "creates": 10031,
      "ordered": 10032,
      "highlight": 10033,
      "sured": 10034,
      "Place": 10035,
      "Spanish": 10036,
      "Log": 10037,
      "Commer": 10038,
      "resistance": 10039,
      "simpl": 10040,
      "2003": 10041,
      "stunning": 10042,
      "normally": 10043,
      "wet": 10044,
      "ena": 10045,
      "Creat": 10046,
      "Arab": 10047,
      "atmosphere": 10048,
      "pregn": 10049,
      "pression": 10050,
      "benefic": 10051,
      "birthday": 10052,
      "extension": 10053,
      "?\"": 10054,
      "Fair": 10055,
      "cher": 10056,
      "aked": 10057,
      "founded": 10058,
      "turns": 10059,
      "Children": 10060,
      "resto": 10061,
      "covering": 10062,
      "Rol": 10063,
      "align": 10064,
      "dram": 10065,
      "uclear": 10066,
      "trend": 10067,
      "native": 10068,
      "sustainable": 10069,
      "alty": 10070,
      "moist": 10071,
      "entirely": 10072,
      "….": 10073,
      "conserv": 10074,
      "pleased": 10075,
      "mile": 10076,
      "theless": 10077,
      "coll": 10078,
      "WA": 10079,
      "pod": 10080,
      "orient": 10081,
      "03": 10082,
      "script": 10083,
      "Jul": 10084,
      "eleg": 10085,
      "Academy": 10086,
      "Mountain": 10087,
      "networks": 10088,
      "implementation": 10089,
      "Right": 10090,
      "tops": 10091,
      "Cost": 10092,
      "medicine": 10093,
      "Administr": 10094,
      "98": 10095,
      "marked": 10096,
      "linked": 10097,
      "isode": 10098,
      "surprise": 10099,
      "exceed": 10100,
      "Unfortunately": 10101,
      "62": 10102,
      "Sho": 10103,
      "apparent": 10104,
      "graphy": 10105,
      "Jose": 10106,
      "bio": 10107,
      "zo": 10108,
      "concrete": 10109,
      "lon": 10110,
      "collaboration": 10111,
      "63": 10112,
      "Publ": 10113,
      "entreprene": 10114,
      "GA": 10115,
      "Saf": 10116,
      "sad": 10117,
      "wearing": 10118,
      "Thus": 10119,
      "covery": 10120,
      "League": 10121,
      "destination": 10122,
      "orgeous": 10123,
      "Digital": 10124,
      "Bab": 10125,
      "Francis": 10126,
      "ultural": 10127,
      "Minister": 10128,
      "',": 10129,
      "orm": 10130,
      "Despite": 10131,
      "Bon": 10132,
      "golf": 10133,
      "resort": 10134,
      "hang": 10135,
      "amed": 10136,
      "increases": 10137,
      "han": 10138,
      "fundam": 10139,
      "dental": 10140,
      "equipped": 10141,
      "entertainment": 10142,
      "HR": 10143,
      "blogg": 10144,
      "attemp": 10145,
      "Site": 10146,
      "amps": 10147,
      "ende": 10148,
      "Prem": 10149,
      "oven": 10150,
      "ounts": 10151,
      "Nav": 10152,
      "enthus": 10153,
      "stic": 10154,
      "passeng": 10155,
      "placing": 10156,
      "CS": 10157,
      "authority": 10158,
      "immig": 10159,
      "duty": 10160,
      "exposure": 10161,
      "Should": 10162,
      "Small": 10163,
      "Know": 10164,
      "PRO": 10165,
      "compens": 10166,
      "expenses": 10167,
      "Support": 10168,
      "Sea": 10169,
      "grab": 10170,
      "Orig": 10171,
      "returns": 10172,
      "grap": 10173,
      "counsel": 10174,
      "generated": 10175,
      "Flo": 10176,
      "gifts": 10177,
      "eder": 10178,
      "acting": 10179,
      "awa": 10180,
      "default": 10181,
      "objects": 10182,
      "bid": 10183,
      "closure": 10184,
      "fairly": 10185,
      "Execut": 10186,
      "entered": 10187,
      "filed": 10188,
      "guidance": 10189,
      "featuring": 10190,
      "aven": 10191,
      "attended": 10192,
      "advoc": 10193,
      "Spir": 10194,
      "Point": 10195,
      "Cup": 10196,
      "OK": 10197,
      "tiny": 10198,
      "Italy": 10199,
      "iveness": 10200,
      "Thomas": 10201,
      "worse": 10202,
      "Box": 10203,
      "crucial": 10204,
      "usage": 10205,
      "weap": 10206,
      "Mont": 10207,
      "Such": 10208,
      "thin": 10209,
      "Though": 10210,
      "Common": 10211,
      "solve": 10212,
      "gallery": 10213,
      "clothes": 10214,
      "Welcome": 10215,
      "structures": 10216,
      "DV": 10217,
      "producing": 10218,
      "Mobile": 10219,
      "Never": 10220,
      "listening": 10221,
      "VER": 10222,
      "Queen": 10223,
      "Festival": 10224,
      "ady": 10225,
      "turning": 10226,
      "Store": 10227,
      "Cab": 10228,
      "vibr": 10229,
      "itis": 10230,
      "izer": 10231,
      "museum": 10232,
      "indeed": 10233,
      "motion": 10234,
      "mixed": 10235,
      "Federal": 10236,
      "pun": 10237,
      "sud": 10238,
      "hai": 10239,
      "attached": 10240,
      "evol": 10241,
      "planet": 10242,
      "gotten": 10243,
      "grew": 10244,
      "Bible": 10245,
      "Sl": 10246,
      "ciples": 10247,
      "visited": 10248,
      "yesterday": 10249,
      "generate": 10250,
      "dynamic": 10251,
      "Kr": 10252,
      "Energy": 10253,
      "FO": 10254,
      "celebrate": 10255,
      "firms": 10256,
      "writers": 10257,
      "Bob": 10258,
      "unable": 10259,
      "Being": 10260,
      "Du": 10261,
      "ancient": 10262,
      "breaking": 10263,
      "Engineering": 10264,
      "improving": 10265,
      "gear": 10266,
      "crush": 10267,
      "destroy": 10268,
      "Current": 10269,
      "bodies": 10270,
      "functional": 10271,
      "split": 10272,
      "ders": 10273,
      "tall": 10274,
      "irty": 10275,
      "boxes": 10276,
      "dangerous": 10277,
      "awarded": 10278,
      "differences": 10279,
      "collected": 10280,
      "revealed": 10281,
      "cycling": 10282,
      "Middle": 10283,
      "spons": 10284,
      "referred": 10285,
      "approval": 10286,
      "51": 10287,
      "sett": 10288,
      "2001": 10289,
      "Phys": 10290,
      "liquid": 10291,
      "MB": 10292,
      "killed": 10293,
      "garage": 10294,
      "citizens": 10295,
      "ml": 10296,
      "iments": 10297,
      "offices": 10298,
      "cute": 10299,
      "managing": 10300,
      "investigation": 10301,
      "strategic": 10302,
      "Custom": 10303,
      "Jim": 10304,
      "reland": 10305,
      "resulting": 10306,
      "domestic": 10307,
      "hook": 10308,
      "trends": 10309,
      "fits": 10310,
      "transform": 10311,
      "filling": 10312,
      "component": 10313,
      "07": 10314,
      "Tube": 10315,
      "inder": 10316,
      "prompt": 10317,
      "explained": 10318,
      "Louis": 10319,
      "bone": 10320,
      "compr": 10321,
      "ansion": 10322,
      "mond": 10323,
      "musical": 10324,
      "discussed": 10325,
      "delay": 10326,
      "recognize": 10327,
      "Jun": 10328,
      "loves": 10329,
      "attress": 10330,
      "developers": 10331,
      "ctic": 10332,
      "SEO": 10333,
      "contribute": 10334,
      "Cast": 10335,
      "flood": 10336,
      "Cross": 10337,
      "impossible": 10338,
      "pricing": 10339,
      "folks": 10340,
      "favourite": 10341,
      "acknow": 10342,
      "proven": 10343,
[...]
